#include "network_data.h"

ai_handle ai_network_data_weights_get(void)
{

  AI_ALIGNED(4)
  static const ai_u8 s_network_weights[ 59432 ] = {
    0xdb, 0xf9, 0x5c, 0xbf, 0xca, 0x7a, 0x5b, 0xbf, 0xb8, 0xfb,
    0x59, 0xbf, 0xa7, 0x7c, 0x58, 0xbf, 0x95, 0xfd, 0x56, 0xbf,
    0x84, 0x7e, 0x55, 0xbf, 0x73, 0xff, 0x53, 0xbf, 0x61, 0x80,
    0x52, 0xbf, 0x50, 0x01, 0x51, 0xbf, 0x3e, 0x82, 0x4f, 0xbf,
    0x2d, 0x03, 0x4e, 0xbf, 0x1c, 0x84, 0x4c, 0xbf, 0x0a, 0x05,
    0x4b, 0xbf, 0xf9, 0x85, 0x49, 0xbf, 0xe7, 0x06, 0x48, 0xbf,
    0xd6, 0x87, 0x46, 0xbf, 0xc5, 0x08, 0x45, 0xbf, 0x70, 0x21,
    0x43, 0xbf, 0x52, 0xc5, 0x41, 0xbf, 0x90, 0x8b, 0x40, 0xbf,
    0x7f, 0x0c, 0x3f, 0xbf, 0xe5, 0x11, 0x3e, 0xbf, 0x5c, 0x0e,
    0x3c, 0xbf, 0x4b, 0x8f, 0x3a, 0xbf, 0x39, 0x10, 0x39, 0xbf,
    0x28, 0x91, 0x37, 0xbf, 0x17, 0x12, 0x36, 0xbf, 0x98, 0x3a,
    0x34, 0xbf, 0xf4, 0x13, 0x33, 0xbf, 0xe3, 0x94, 0x31, 0xbf,
    0xd1, 0x15, 0x30, 0xbf, 0xc0, 0x96, 0x2e, 0xbf, 0x23, 0xa8,
    0x2c, 0xbf, 0xae, 0x07, 0x2c, 0xbf, 0x8c, 0x19, 0x2a, 0xbf,
    0x7a, 0x9a, 0x28, 0xbf, 0xbf, 0xee, 0x26, 0xbf, 0xcc, 0xc7,
    0x25, 0xbf, 0x46, 0x1d, 0x24, 0xbf, 0x35, 0x9e, 0x22, 0xbf,
    0xb4, 0xe6, 0x20, 0xbf, 0x12, 0xa0, 0x1f, 0xbf, 0x00, 0x21,
    0x1e, 0xbf, 0x34, 0x0c, 0x1c, 0xbf, 0x8b, 0x77, 0x1b, 0xbf,
    0x94, 0xb2, 0x19, 0xbf, 0x51, 0xb3, 0x18, 0xbf, 0x25, 0xe3,
    0x16, 0xbf, 0x65, 0xaf, 0x14, 0xbf, 0x7c, 0x71, 0x13, 0xbf,
    0x56, 0xd0, 0x12, 0xbf, 0x20, 0x96, 0x10, 0xbf, 0x52, 0x2a,
    0x0f, 0xbf, 0x41, 0xab, 0x0d, 0xbf, 0x43, 0xbb, 0x0c, 0xbf,
    0x7d, 0xd2, 0x0a, 0xbf, 0xd6, 0xa2, 0x09, 0xbf, 0x21, 0x28,
    0x07, 0xbf, 0xea, 0x2f, 0x06, 0xbf, 0xb0, 0xb7, 0x04, 0xbf,
    0xdf, 0x86, 0x02, 0xbf, 0x3c, 0xdf, 0x01, 0xbf, 0xe8, 0x1f,
    0x00, 0xbf, 0x4d, 0x8c, 0xfd, 0xbe, 0xa6, 0x0f, 0xfb, 0xbe,
    0xf7, 0x8f, 0xf7, 0xbe, 0xbe, 0x6e, 0xf4, 0xbe, 0xea, 0x02,
    0xf1, 0xbe, 0xcb, 0xa0, 0xee, 0xbe, 0x7c, 0xf6, 0xea, 0xbe,
    0xb6, 0x72, 0xe8, 0xbe, 0xae, 0xbd, 0xe4, 0xbe, 0xa7, 0x36,
    0xe3, 0xbe, 0x7a, 0x2f, 0xe0, 0xbe, 0xd6, 0xff, 0xdb, 0xbe,
    0x1b, 0x1f, 0xd9, 0xbe, 0x85, 0xf5, 0xd6, 0xbe, 0xde, 0x70,
    0xd3, 0xbe, 0x48, 0xab, 0xd0, 0xbe, 0xac, 0xa8, 0xcd, 0xbe,
    0x59, 0x9a, 0xca, 0xbe, 0xb5, 0xca, 0xc7, 0xbe, 0x35, 0x44,
    0xc4, 0xbe, 0x6e, 0x9e, 0xc1, 0xbe, 0x93, 0xba, 0xbe, 0xbe,
    0x47, 0xb1, 0xbb, 0xbe, 0x8f, 0x74, 0xb8, 0xbe, 0x87, 0xd7,
    0xb5, 0xbe, 0x6c, 0x8f, 0xb2, 0xbe, 0x17, 0xd2, 0xaf, 0xbe,
    0x71, 0x46, 0xac, 0xbe, 0xa9, 0x6c, 0xa8, 0xbe, 0xc2, 0x7c,
    0xa5, 0xbe, 0xca, 0x71, 0xa2, 0xbe, 0x40, 0x1c, 0xa0, 0xbe,
    0x67, 0xc4, 0x9d, 0xbe, 0xd9, 0x2f, 0x9b, 0xbe, 0xcc, 0xcc,
    0x97, 0xbe, 0xca, 0x6d, 0x94, 0xbe, 0xd6, 0xf9, 0x90, 0xbe,
    0xa0, 0xe9, 0x8d, 0xbe, 0xc3, 0x01, 0x8b, 0xbe, 0xe8, 0xc5,
    0x87, 0xbe, 0xe3, 0xbe, 0x84, 0xbe, 0x5b, 0x41, 0x82, 0xbe,
    0x22, 0x56, 0x7e, 0xbe, 0xda, 0x9e, 0x78, 0xbe, 0x78, 0x4a,
    0x73, 0xbe, 0x29, 0xe4, 0x6d, 0xbe, 0x57, 0xad, 0x67, 0xbe,
    0x93, 0xaa, 0x61, 0xbe, 0x22, 0x55, 0x5b, 0xbe, 0xd6, 0x4c,
    0x55, 0xbe, 0xf7, 0x65, 0x4f, 0xbe, 0xaf, 0x6d, 0x49, 0xbe,
    0xce, 0x70, 0x43, 0xbe, 0xfd, 0xc9, 0x3d, 0xbe, 0x2a, 0xe9,
    0x37, 0xbe, 0x77, 0x57, 0x32, 0xbe, 0xa4, 0x1b, 0x2c, 0xbe,
    0xe9, 0x86, 0x25, 0xbe, 0xcd, 0xca, 0x1f, 0xbe, 0xb6, 0xb1,
    0x19, 0xbe, 0x98, 0xa0, 0x13, 0xbe, 0x7a, 0x5f, 0x0d, 0xbe,
    0xc5, 0x68, 0x07, 0xbe, 0x38, 0x3c, 0x01, 0xbe, 0x7c, 0xd8,
    0xf5, 0xbd, 0xe1, 0xc6, 0xe9, 0xbd, 0xdc, 0xd7, 0xdd, 0xbd,
    0x74, 0x5e, 0xd2, 0xbd, 0x21, 0x61, 0xc6, 0xbd, 0xbf, 0x4e,
    0xba, 0xbd, 0x78, 0xd5, 0xac, 0xbd, 0x20, 0x3d, 0xa1, 0xbd,
    0x3c, 0x05, 0x96, 0xbd, 0x7a, 0x8c, 0x8a, 0xbd, 0xb8, 0x90,
    0x7e, 0xbd, 0xbd, 0x65, 0x66, 0xbd, 0x32, 0xbf, 0x4d, 0xbd,
    0x82, 0x89, 0x35, 0xbd, 0x36, 0xe7, 0x1c, 0xbd, 0x5e, 0xbb,
    0x04, 0xbd, 0xf0, 0xf5, 0xd9, 0xbc, 0x52, 0xfa, 0xac, 0xbc,
    0xf2, 0x9c, 0x80, 0xbc, 0xed, 0x5d, 0x20, 0xbc, 0xaf, 0x36,
    0x81, 0xbb, 0xdf, 0x24, 0x04, 0x3b, 0xa7, 0xf4, 0x02, 0x3c,
    0xaf, 0x41, 0x62, 0x3c, 0xaa, 0xe2, 0xa1, 0x3c, 0xed, 0x1b,
    0xd2, 0x3c, 0x0c, 0x93, 0xff, 0x3c, 0x62, 0x91, 0x16, 0x3d,
    0xcf, 0x52, 0x2d, 0x3d, 0x5e, 0x45, 0x45, 0x3d, 0x27, 0x0d,
    0x5d, 0x3d, 0xc8, 0x00, 0x75, 0x3d, 0x49, 0x02, 0x87, 0x3d,
    0x36, 0xd9, 0x92, 0x3d, 0xf7, 0xf1, 0x9e, 0x3d, 0x25, 0xc0,
    0xaa, 0x3d, 0x8f, 0x16, 0xb7, 0x3d, 0x23, 0x22, 0xc3, 0x3d,
    0xda, 0x61, 0xcf, 0x3d, 0x9e, 0x1b, 0xdb, 0x3d, 0xce, 0xa7,
    0xe6, 0x3d, 0x11, 0xdc, 0xf2, 0x3d, 0xbf, 0x9e, 0xfe, 0x3d,
    0xae, 0x2b, 0x05, 0x3e, 0x1d, 0xf4, 0x0a, 0x3e, 0x31, 0x35,
    0x11, 0x3e, 0x2a, 0x4d, 0x17, 0x3e, 0x54, 0x72, 0x1d, 0x3e,
    0x32, 0xfe, 0x22, 0x3e, 0x1b, 0xf2, 0x28, 0x3e, 0xec, 0x4f,
    0x2f, 0x3e, 0x65, 0xb6, 0x35, 0x3e, 0xea, 0xd8, 0x3b, 0x3e,
    0xa7, 0xcb, 0x41, 0x3e, 0xa2, 0x66, 0x47, 0x3e, 0xcb, 0xad,
    0x4d, 0x3e, 0x2c, 0x7f, 0x53, 0x3e, 0x23, 0x31, 0x59, 0x3e,
    0x3d, 0x5c, 0x5f, 0x3e, 0x73, 0x7a, 0x65, 0x3e, 0x74, 0x5b,
    0x6b, 0x3e, 0x32, 0x73, 0x71, 0x3e, 0x98, 0x7c, 0x77, 0x3e,
    0x93, 0x0d, 0x7d, 0x3e, 0xd5, 0x34, 0x81, 0x3e, 0x93, 0xf7,
    0x83, 0x3e, 0x77, 0x13, 0x87, 0x3e, 0x75, 0xfb, 0x89, 0x3e,
    0xef, 0x14, 0x8d, 0x3e, 0xb9, 0xbf, 0x90, 0x3e, 0xf7, 0x35,
    0x94, 0x3e, 0x10, 0x34, 0x97, 0x3e, 0x97, 0xb6, 0x99, 0x3e,
    0x13, 0x34, 0x9c, 0x3e, 0x5f, 0x47, 0x9f, 0x3e, 0x7d, 0x9d,
    0xa2, 0x3e, 0x10, 0xe5, 0xa5, 0x3e, 0xf7, 0xa8, 0xa8, 0x3e,
    0x77, 0xbc, 0xab, 0x3e, 0x6c, 0x0d, 0xaf, 0x3e, 0x95, 0xc3,
    0xb1, 0x3e, 0x71, 0x6a, 0xb4, 0x3e, 0xfa, 0xdb, 0xb7, 0x3e,
    0x86, 0xd7, 0xba, 0x3e, 0x57, 0xd8, 0xbd, 0x3e, 0x3e, 0x37,
    0xc0, 0x3e, 0x31, 0x38, 0xc3, 0x3e, 0x98, 0xaa, 0xc6, 0x3e,
    0xc1, 0xe7, 0xc8, 0x3e, 0xfe, 0xd8, 0xcb, 0x3e, 0x76, 0x32,
    0xcf, 0x3e, 0xf9, 0x4f, 0xd2, 0x3e, 0x7e, 0x35, 0xd5, 0x3e,
    0xe0, 0x2c, 0xd9, 0x3e, 0x10, 0x71, 0xdb, 0x3e, 0x31, 0x21,
    0xdf, 0x3e, 0x14, 0x01, 0xe2, 0x3e, 0xbb, 0x6a, 0xe4, 0x3e,
    0x7d, 0x54, 0xe7, 0x3e, 0x38, 0xb2, 0xe9, 0x3e, 0xdc, 0x28,
    0xed, 0x3e, 0xe4, 0x8c, 0xf0, 0x3e, 0x7b, 0x4f, 0xf3, 0x3e,
    0x1e, 0x1c, 0xf6, 0x3e, 0xa3, 0x96, 0xf9, 0x3e, 0x33, 0x28,
    0xfc, 0x3e, 0x64, 0xdd, 0xfe, 0x3e, 0x80, 0x14, 0x01, 0x3f,
    0x1d, 0xab, 0x02, 0x3f, 0x04, 0xeb, 0x03, 0x3f, 0xa5, 0x32,
    0x06, 0x3f, 0x51, 0x28, 0x07, 0x3f, 0x30, 0xe2, 0x08, 0x3f,
    0x74, 0x26, 0x0a, 0x3f, 0xde, 0x9c, 0x0b, 0x3f, 0x97, 0x24,
    0x0d, 0x3f, 0xd9, 0x48, 0x0f, 0x3f, 0xba, 0x22, 0x10, 0x3f,
    0xf2, 0xe3, 0x10, 0x3f, 0xdc, 0x20, 0x13, 0x3f, 0xee, 0x9f,
    0x14, 0x3f, 0xd3, 0xde, 0x15, 0x3f, 0x11, 0x9e, 0x17, 0x3f,
    0x22, 0x1d, 0x19, 0x3f, 0x33, 0x9c, 0x1a, 0x3f, 0x90, 0xc7,
    0x1c, 0x3f, 0x56, 0x9a, 0x1d, 0x3f, 0x68, 0x19, 0x1f, 0x3f,
    0x79, 0x98, 0x20, 0x3f, 0x93, 0x95, 0xa2, 0x9c, 0x96, 0x94,
    0x94, 0x91, 0x89, 0x8c, 0x9d, 0x8f, 0x94, 0x95, 0x88, 0x8b,
    0xa2, 0x9a, 0x95, 0x95, 0x96, 0x87, 0x9b, 0x97, 0x8f, 0xa1,
    0x86, 0x93, 0x8c, 0x8a, 0x9a, 0xa1, 0x8c, 0x97, 0x91, 0x8c,
    0x8a, 0x95, 0x8b, 0x88, 0xa9, 0xa6, 0x9f, 0xa4, 0xab, 0xaa,
    0x8b, 0x86, 0x95, 0xa0, 0x98, 0x96, 0x9c, 0x9b, 0xa0, 0x93,
    0x85, 0x91, 0xa1, 0xa1, 0x89, 0x8b, 0x8b, 0x9c, 0x9b, 0x8c,
    0x9d, 0xbc, 0xb5, 0xc5, 0xd3, 0xc2, 0xc4, 0xbf, 0xb9, 0xaa,
    0xa7, 0x94, 0x9e, 0x8b, 0x8b, 0xa0, 0x9c, 0x8b, 0x95, 0x86,
    0x91, 0x90, 0x93, 0x96, 0x88, 0x9d, 0x89, 0x93, 0xac, 0xa8,
    0xbb, 0xa9, 0xa3, 0xa5, 0xb3, 0xa5, 0xa2, 0xb8, 0x9e, 0x92,
    0x91, 0x91, 0x94, 0x97, 0xa2, 0x8b, 0x95, 0x86, 0x9c, 0x8f,
    0x8f, 0x78, 0x84, 0x9b, 0x85, 0xa3, 0xab, 0xa8, 0xa0, 0x95,
    0x92, 0xb3, 0xa1, 0x98, 0xb5, 0x97, 0x9e, 0x9c, 0xb1, 0xc1,
    0xcc, 0xbc, 0xa0, 0x9f, 0x93, 0x9b, 0x93, 0x7f, 0x79, 0x84,
    0x93, 0x93, 0x89, 0xa8, 0x92, 0x91, 0x96, 0x9d, 0xa3, 0x8a,
    0x94, 0x98, 0xaa, 0x9c, 0x93, 0xa2, 0xb9, 0xc8, 0xc2, 0xcf,
    0xbd, 0xa0, 0x8a, 0x91, 0x91, 0x82, 0x7d, 0x90, 0x8f, 0x99,
    0x93, 0x91, 0x97, 0x9d, 0x95, 0x95, 0x99, 0x8f, 0xa0, 0x9d,
    0x98, 0xad, 0x8e, 0x93, 0xb3, 0xb5, 0xc4, 0xbf, 0xcb, 0x95,
    0x99, 0x9f, 0x97, 0x8e, 0x7b, 0x98, 0x98, 0x9c, 0xa9, 0xa3,
    0xa6, 0xaa, 0x99, 0x95, 0xa3, 0x9d, 0x92, 0x91, 0x96, 0xb0,
    0xa3, 0xa5, 0x9f, 0x95, 0xa4, 0xc7, 0xc6, 0x97, 0x9b, 0x9b,
    0x8d, 0x7b, 0x88, 0x9b, 0x9a, 0x99, 0x9f, 0x8b, 0x97, 0x9c,
    0xa5, 0x8c, 0x7f, 0x92, 0xa2, 0xa0, 0x94, 0x8a, 0xa3, 0x89,
    0x7e, 0x92, 0xa4, 0xa9, 0xbd, 0x9d, 0x9d, 0x9b, 0x96, 0x8b,
    0x74, 0x94, 0x8e, 0x96, 0x9c, 0x9a, 0xa5, 0xac, 0x97, 0x7f,
    0x5c, 0x60, 0x73, 0x77, 0x71, 0x6f, 0x71, 0x78, 0x7a, 0x84,
    0xa4, 0xad, 0xb2, 0x90, 0x9e, 0x9a, 0x8d, 0x86, 0x95, 0xa7,
    0x93, 0x92, 0xa3, 0x9c, 0x90, 0xa6, 0xa8, 0x75, 0x63, 0x6d,
    0x87, 0x6f, 0x68, 0x54, 0x5a, 0x6a, 0x67, 0x7b, 0x8e, 0x84,
    0xa4, 0x90, 0x8c, 0x83, 0x8f, 0x88, 0x9a, 0x98, 0xa5, 0xa0,
    0x97, 0x97, 0x9c, 0xa5, 0x89, 0x87, 0x79, 0x84, 0x8f, 0xa6,
    0xa0, 0x82, 0x7d, 0x7a, 0x70, 0x9a, 0x8d, 0x84, 0x9e, 0x9a,
    0x8d, 0x92, 0x80, 0x8a, 0x9a, 0x8e, 0x93, 0x90, 0x8e, 0x8f,
    0x88, 0xa9, 0x94, 0x7e, 0x77, 0x7b, 0x7c, 0x8f, 0x9a, 0x98,
    0x9e, 0x87, 0x70, 0xa1, 0x99, 0x77, 0xa0, 0x8f, 0x8a, 0x85,
    0x8b, 0xa2, 0xa1, 0x8a, 0xa9, 0xb1, 0x8d, 0x82, 0x9e, 0x88,
    0x97, 0x7a, 0x87, 0x81, 0x6a, 0x8c, 0x8c, 0x87, 0x9d, 0x87,
    0x86, 0xa5, 0xb9, 0x9f, 0x93, 0xa1, 0x90, 0x9c, 0x90, 0x7d,
    0xa9, 0x9b, 0xa4, 0xa4, 0x9b, 0x92, 0x9e, 0x89, 0x94, 0x82,
    0x79, 0x7b, 0x89, 0x84, 0x90, 0x91, 0xa0, 0x8f, 0x9b, 0xb2,
    0xa0, 0x9d, 0x86, 0x8d, 0x9f, 0x8f, 0x79, 0x8d, 0x9a, 0x99,
    0x8a, 0x91, 0xab, 0x9f, 0x90, 0x99, 0x85, 0x89, 0x83, 0x67,
    0x89, 0x8d, 0x95, 0x86, 0x97, 0x94, 0x93, 0xa4, 0xa7, 0xa9,
    0x8a, 0x9b, 0x97, 0x9e, 0x8c, 0x86, 0x91, 0x95, 0x84, 0x83,
    0x8c, 0x8f, 0x93, 0x94, 0xa0, 0x96, 0x7a, 0x74, 0x85, 0x87,
    0x92, 0x94, 0x8b, 0x90, 0xa5, 0xa4, 0x9e, 0xa3, 0x87, 0x87,
    0x9a, 0x86, 0x82, 0x8c, 0xa9, 0x8f, 0x90, 0xa2, 0x85, 0x8d,
    0x95, 0xa9, 0x9d, 0x84, 0x7b, 0x75, 0x81, 0x94, 0x9b, 0x91,
    0x9e, 0x8e, 0x93, 0x8f, 0x8e, 0x9b, 0x8a, 0x97, 0x86, 0x91,
    0x97, 0xa7, 0x9c, 0x9d, 0x93, 0xa3, 0x8f, 0x86, 0x93, 0x84,
    0x9c, 0x7e, 0x69, 0x78, 0x8a, 0x8b, 0x94, 0x91, 0xa4, 0x95,
    0x98, 0x84, 0x92, 0x99, 0x92, 0x87, 0x8f, 0x9e, 0x9e, 0x95,
    0x9e, 0x8b, 0x9b, 0x8f, 0x89, 0x87, 0x8c, 0x8b, 0xa0, 0x78,
    0x84, 0x8a, 0x88, 0x9a, 0x9d, 0x92, 0x9a, 0x9b, 0x94, 0x98,
    0xaf, 0x97, 0x95, 0x99, 0x89, 0x9c, 0x93, 0xa5, 0xad, 0xa7,
    0x90, 0x82, 0x95, 0x86, 0x93, 0x8f, 0x91, 0xa3, 0x8f, 0xa3,
    0x98, 0xa5, 0x8d, 0x92, 0x9b, 0x90, 0x93, 0xa1, 0xa4, 0x9f,
    0xa1, 0x8d, 0x95, 0x89, 0x83, 0x93, 0xb4, 0x99, 0x90, 0x87,
    0x95, 0x9c, 0x9b, 0x8b, 0x9d, 0x9a, 0x9f, 0x9c, 0x95, 0x9d,
    0x98, 0x8f, 0x9b, 0x9d, 0x9f, 0xa5, 0xab, 0xa0, 0x89, 0x9f,
    0x94, 0x95, 0x8e, 0x9a, 0xa7, 0xa4, 0x8b, 0x87, 0x90, 0x87,
    0x83, 0x9b, 0x8c, 0x9b, 0xa9, 0xaf, 0xa2, 0x92, 0x8a, 0x94,
    0x92, 0x91, 0xac, 0xa1, 0x90, 0x89, 0x96, 0x91, 0x98, 0x97,
    0x9c, 0xa6, 0xa0, 0xa9, 0x96, 0xa0, 0x9a, 0xa0, 0x9b, 0x9b,
    0x98, 0xa3, 0x9b, 0xa0, 0xa2, 0x9c, 0x93, 0x90, 0x98, 0xa2,
    0xa9, 0xb1, 0x7f, 0x92, 0x83, 0x8b, 0x8e, 0x91, 0x84, 0xa1,
    0x9f, 0x9d, 0x9d, 0x8d, 0x95, 0x95, 0x8b, 0xaa, 0xa1, 0xac,
    0xab, 0x97, 0x91, 0x91, 0xa6, 0xaa, 0xb2, 0xb8, 0xb3, 0x8e,
    0x81, 0x93, 0x88, 0x8c, 0x88, 0xa2, 0x89, 0xa6, 0x8f, 0x98,
    0x97, 0x99, 0xa5, 0x98, 0x92, 0x96, 0x9c, 0x93, 0xa7, 0x9e,
    0xa3, 0xa1, 0xb4, 0xbf, 0xac, 0xbd, 0xc3, 0xae, 0x90, 0xa1,
    0x99, 0x8b, 0x88, 0x94, 0x88, 0x8b, 0x92, 0x89, 0x8b, 0x80,
    0x97, 0x80, 0x9d, 0x8a, 0x94, 0x8b, 0xa3, 0x8e, 0x88, 0x94,
    0x91, 0xb3, 0xa1, 0xaa, 0xa8, 0xa6, 0x89, 0x9e, 0x94, 0x89,
    0x8a, 0xa1, 0x85, 0x9f, 0x87, 0x89, 0x94, 0x85, 0x97, 0x85,
    0x86, 0x83, 0x94, 0x8d, 0x7c, 0x91, 0x8b, 0x89, 0x9c, 0x83,
    0x8c, 0x9e, 0x96, 0x8a, 0x8c, 0x9e, 0x9e, 0x9d, 0x92, 0x93,
    0x95, 0x98, 0x9c, 0x8d, 0x8f, 0x90, 0x96, 0x8f, 0x89, 0x89,
    0x9a, 0x9f, 0x98, 0x88, 0x8b, 0x97, 0x8c, 0x89, 0x99, 0x94,
    0x89, 0x92, 0x9f, 0x98, 0x96, 0x8a, 0x9a, 0x8b, 0x9e, 0x88,
    0x9e, 0x98, 0x9d, 0xa5, 0xa6, 0xad, 0xc8, 0xd4, 0xc9, 0xbc,
    0xcb, 0xb4, 0x9b, 0xaf, 0xc0, 0xbe, 0xac, 0xb2, 0xaa, 0xa6,
    0x8b, 0x8c, 0x8d, 0x99, 0x9c, 0x94, 0xa0, 0x9a, 0xa4, 0xa0,
    0xb3, 0xb3, 0xc6, 0xc4, 0xc5, 0xc3, 0xbb, 0xcd, 0xb0, 0xb3,
    0xad, 0xae, 0xb5, 0xdc, 0xe4, 0xf5, 0xd8, 0xc4, 0xb2, 0x96,
    0x8d, 0x86, 0x98, 0x87, 0x98, 0x95, 0x95, 0x9a, 0xb5, 0xaa,
    0xb2, 0xa4, 0xa5, 0x95, 0x83, 0x8c, 0x96, 0x84, 0x94, 0xa4,
    0xa3, 0xa6, 0x95, 0xa9, 0xb2, 0xd4, 0xb2, 0xa5, 0x85, 0x88,
    0x96, 0x91, 0x91, 0x9e, 0x7d, 0x92, 0x8c, 0x85, 0x94, 0xa3,
    0x9e, 0x8e, 0x88, 0x9b, 0x9e, 0x96, 0x93, 0xa1, 0x9c, 0xac,
    0xa2, 0xa8, 0x93, 0xa4, 0x88, 0x9e, 0x8e, 0xa3, 0x8b, 0x97,
    0xa5, 0x7f, 0x8c, 0x80, 0x9e, 0x90, 0xa0, 0x9e, 0x91, 0x8c,
    0x93, 0x86, 0x95, 0x88, 0x93, 0x99, 0x8f, 0x94, 0xa2, 0x98,
    0xb2, 0xa5, 0xb7, 0x8c, 0x86, 0x8c, 0x8e, 0xa1, 0x9f, 0x85,
    0x77, 0x84, 0x98, 0xa7, 0xa7, 0x92, 0x89, 0x78, 0x73, 0x80,
    0x7a, 0x79, 0x8a, 0x87, 0x7c, 0x93, 0x90, 0x93, 0x9f, 0xa1,
    0x9b, 0x8f, 0x73, 0x9c, 0xa2, 0x89, 0xa3, 0x7f, 0x77, 0x91,
    0x88, 0x9c, 0xab, 0x8f, 0x9e, 0x87, 0x78, 0x76, 0x7e, 0x86,
    0x83, 0x83, 0x8f, 0x96, 0x99, 0x93, 0x8b, 0x95, 0x85, 0x80,
    0x93, 0x85, 0x8a, 0x87, 0x85, 0x76, 0x62, 0x76, 0x8c, 0x99,
    0x92, 0x9f, 0x8f, 0x8f, 0x8b, 0x83, 0x78, 0x6e, 0x89, 0x88,
    0x8e, 0x87, 0x93, 0x89, 0x8f, 0x80, 0x79, 0x8c, 0x88, 0x86,
    0x9f, 0x97, 0x83, 0x7f, 0x5d, 0x65, 0x95, 0x8d, 0xa3, 0x95,
    0x8e, 0x9a, 0x77, 0x75, 0x68, 0x76, 0x95, 0x8b, 0x83, 0x90,
    0x8c, 0x7d, 0x83, 0x7a, 0x88, 0x89, 0x90, 0x7c, 0x9c, 0x83,
    0x80, 0x83, 0x70, 0x69, 0x8c, 0x94, 0x94, 0x9e, 0xa2, 0x96,
    0x96, 0x77, 0x92, 0x9a, 0x87, 0x95, 0x99, 0x99, 0x8e, 0x81,
    0x8a, 0x87, 0xac, 0x88, 0x75, 0x94, 0x8f, 0x99, 0x88, 0x7d,
    0x7a, 0x6e, 0x84, 0x97, 0x9e, 0x9e, 0x9b, 0x9b, 0x9a, 0x88,
    0x84, 0x9c, 0x8c, 0x8d, 0x88, 0x8f, 0x84, 0x88, 0x82, 0x98,
    0xa5, 0x8b, 0x6f, 0x9f, 0x92, 0x9b, 0x8a, 0x7b, 0x62, 0x7e,
    0x90, 0x9f, 0x9b, 0x94, 0xae, 0xa8, 0x96, 0x98, 0x82, 0x9d,
    0x95, 0x8a, 0x8a, 0x7d, 0x83, 0x88, 0x9a, 0x9d, 0xa3, 0x96,
    0x8a, 0x94, 0x88, 0x90, 0x7e, 0x92, 0x61, 0x89, 0x98, 0x85,
    0xa0, 0x94, 0xa3, 0xa9, 0x9f, 0x97, 0x86, 0xa2, 0x9f, 0x9a,
    0x8e, 0x8f, 0x99, 0x9c, 0x9c, 0x92, 0x8a, 0x97, 0x73, 0x9b,
    0x8b, 0x88, 0x8e, 0x82, 0x71, 0x91, 0x9a, 0x8f, 0x96, 0x9b,
    0xa8, 0xb5, 0x9b, 0x94, 0x92, 0x8d, 0x8d, 0xa0, 0x9e, 0x97,
    0x9e, 0x97, 0xb4, 0x99, 0x94, 0x8f, 0x7d, 0x95, 0x98, 0x9a,
    0x84, 0x90, 0x9c, 0x89, 0x96, 0xa8, 0x9b, 0xaf, 0xa0, 0xa9,
    0xa5, 0x98, 0x9b, 0x99, 0x94, 0xa1, 0x93, 0x96, 0x9a, 0xb5,
    0xa5, 0xa4, 0x84, 0xa4, 0x8a, 0x9a, 0x86, 0x9b, 0x8e, 0x8a,
    0x85, 0x8d, 0x93, 0xb2, 0x9e, 0xae, 0x97, 0x9a, 0x96, 0x8e,
    0xa4, 0x8a, 0x9f, 0x8a, 0x97, 0xa1, 0x90, 0x95, 0x93, 0x88,
    0x8e, 0xac, 0x78, 0x9d, 0x8b, 0x9d, 0x95, 0xa1, 0x89, 0x78,
    0x9b, 0x94, 0xa0, 0x99, 0x97, 0xa2, 0x97, 0x95, 0xa1, 0x93,
    0x99, 0x8a, 0x9d, 0x89, 0x96, 0x94, 0x97, 0x92, 0x9d, 0x9b,
    0x85, 0x8b, 0x8e, 0x90, 0x7f, 0x80, 0x7c, 0x78, 0x8d, 0x89,
    0xa1, 0x9b, 0x90, 0x7f, 0xa2, 0x9d, 0x86, 0x8d, 0x8e, 0x94,
    0x91, 0x8a, 0x94, 0x98, 0x81, 0x93, 0x80, 0x83, 0x85, 0x8f,
    0x95, 0x92, 0x7e, 0x81, 0x79, 0x79, 0x85, 0xa3, 0x98, 0x95,
    0x8e, 0x94, 0xa7, 0x94, 0x98, 0x8c, 0x9a, 0x82, 0x98, 0x7a,
    0x8c, 0x8b, 0x8c, 0x92, 0x95, 0x8e, 0x93, 0x8b, 0xa0, 0x9e,
    0x7e, 0x8c, 0x6d, 0x74, 0x85, 0x92, 0x8f, 0x95, 0x93, 0x94,
    0xa9, 0x9d, 0xa2, 0x9c, 0x93, 0x8c, 0x8d, 0x86, 0x8c, 0x92,
    0x90, 0x7f, 0x80, 0x84, 0x83, 0x99, 0x93, 0x8b, 0x87, 0x7f,
    0x82, 0x5e, 0x67, 0x86, 0x8f, 0x91, 0xa0, 0x9c, 0xb1, 0xb5,
    0xb3, 0x9e, 0x9c, 0xa8, 0x92, 0x85, 0x9b, 0x94, 0x7f, 0x89,
    0x82, 0x92, 0x99, 0x90, 0x98, 0x91, 0x8d, 0x88, 0x7d, 0x7c,
    0x5d, 0x6a, 0x96, 0xa1, 0x8f, 0xa7, 0xa5, 0xaa, 0xa2, 0xa4,
    0xa3, 0x97, 0x9d, 0x98, 0x92, 0x8e, 0xa5, 0x99, 0x8c, 0xa8,
    0x99, 0x94, 0x85, 0x92, 0x9c, 0x88, 0x87, 0x84, 0x8e, 0x62,
    0x69, 0x72, 0x77, 0x73, 0x95, 0x96, 0xa0, 0xa1, 0x91, 0x95,
    0x95, 0x92, 0x90, 0x8f, 0xaa, 0x9b, 0x89, 0x91, 0xa5, 0xa2,
    0x8b, 0x8b, 0x89, 0x9e, 0xa0, 0x91, 0x9b, 0x8f, 0x8a, 0x8c,
    0x6b, 0x70, 0x86, 0x7e, 0x92, 0x96, 0x95, 0x93, 0x8d, 0x8a,
    0x8b, 0x9c, 0x96, 0x91, 0x88, 0x9e, 0x89, 0xa2, 0x8b, 0x97,
    0x94, 0x9a, 0x8e, 0x82, 0x9a, 0x8b, 0x79, 0x7b, 0x8e, 0x85,
    0x73, 0x77, 0x6d, 0x7d, 0x7f, 0x8a, 0x81, 0x8d, 0x8a, 0x8f,
    0xa2, 0x9b, 0x98, 0x9a, 0xa0, 0xa0, 0x8b, 0x87, 0x9f, 0x9b,
    0x98, 0x8b, 0x87, 0x8c, 0x89, 0x89, 0x8d, 0x74, 0x6d, 0x64,
    0x5a, 0x5e, 0x69, 0x65, 0x73, 0x6b, 0x7a, 0x85, 0x99, 0x8a,
    0x93, 0x99, 0x86, 0x9a, 0x89, 0x9b, 0x94, 0x91, 0x8b, 0x9d,
    0x8a, 0x87, 0x81, 0x7d, 0x95, 0x82, 0x80, 0x7e, 0x86, 0x83,
    0x98, 0x99, 0x88, 0x82, 0x8c, 0x85, 0x9d, 0x9e, 0x89, 0xa1,
    0x94, 0xa1, 0x86, 0x92, 0x8d, 0x8d, 0x90, 0xa1, 0x90, 0x88,
    0x8f, 0xa1, 0x97, 0x86, 0xa1, 0x9a, 0x8f, 0x92, 0x8e, 0x85,
    0x95, 0x99, 0x97, 0x99, 0x9d, 0x97, 0x86, 0x97, 0x8d, 0x94,
    0x8c, 0x9b, 0x87, 0x9c, 0x9a, 0xa2, 0x8f, 0x92, 0x8b, 0x8a,
    0xa0, 0xa1, 0xaf, 0xbb, 0xb5, 0x99, 0xa2, 0xb9, 0xb7, 0xc2,
    0xc2, 0xad, 0x94, 0xa7, 0x9b, 0x98, 0x8e, 0x9c, 0x93, 0x96,
    0x87, 0x9c, 0xa7, 0xa6, 0x92, 0x95, 0xa4, 0x97, 0x91, 0x90,
    0xb3, 0xb5, 0xaf, 0xc4, 0xbe, 0xaf, 0xb9, 0xe1, 0xf8, 0xff,
    0xde, 0xd5, 0xc1, 0xa0, 0x97, 0x8a, 0x94, 0x8a, 0x9c, 0x9e,
    0x9f, 0xa0, 0xa2, 0xa5, 0x8e, 0x94, 0x82, 0x72, 0x88, 0xa3,
    0xa1, 0xa2, 0xa4, 0xb3, 0xbd, 0xc1, 0xc0, 0xca, 0xcb, 0xc1,
    0xb7, 0x95, 0x85, 0xa1, 0x91, 0x92, 0x9c, 0x8f, 0x8f, 0x95,
    0x98, 0x96, 0xa3, 0x70, 0x81, 0x8c, 0x94, 0xa4, 0x9d, 0x9e,
    0x9f, 0x9d, 0x9f, 0xa9, 0x9a, 0x8e, 0x94, 0x89, 0x9f, 0x94,
    0x8b, 0x8a, 0x9b, 0x8e, 0xa0, 0xa3, 0x91, 0xa9, 0x9a, 0x8f,
    0x82, 0x81, 0x6a, 0x70, 0x9a, 0x8f, 0x8f, 0x77, 0x72, 0x85,
    0xa1, 0xa1, 0x8f, 0x88, 0x87, 0x8c, 0x9d, 0x8b, 0x93, 0x91,
    0x8d, 0x91, 0x94, 0xa0, 0x9e, 0x8b, 0x82, 0x8f, 0x80, 0x71,
    0x65, 0x79, 0x7f, 0x86, 0x99, 0x96, 0x9f, 0xb5, 0xa7, 0x8a,
    0x96, 0x85, 0x83, 0x7e, 0x60, 0x7d, 0x79, 0x8d, 0x9c, 0x92,
    0x96, 0x91, 0x90, 0x7a, 0x73, 0x54, 0x55, 0x54, 0x59, 0x73,
    0x95, 0x93, 0xb1, 0x9e, 0x9c, 0xa0, 0x9d, 0x8d, 0x9d, 0x9c,
    0x89, 0x6f, 0x60, 0x76, 0x87, 0x81, 0x8b, 0x85, 0x88, 0x96,
    0x7d, 0x84, 0x7b, 0x72, 0x69, 0x79, 0x7b, 0x8e, 0x8d, 0x9e,
    0xad, 0x9c, 0x98, 0x8d, 0x98, 0x89, 0x82, 0x96, 0x91, 0x78,
    0x68, 0x62, 0x77, 0x9b, 0x87, 0x83, 0x88, 0x96, 0x86, 0x75,
    0x5f, 0x67, 0x8c, 0x85, 0xa5, 0x94, 0x89, 0x9e, 0xa0, 0xa1,
    0x8b, 0x73, 0x7c, 0x84, 0x82, 0x82, 0x9a, 0x8a, 0x68, 0x76,
    0x86, 0x96, 0x92, 0x94, 0x76, 0x82, 0x7b, 0x86, 0x6d, 0x88,
    0x8f, 0x97, 0x8b, 0x99, 0x81, 0x97, 0x8e, 0x9c, 0x8f, 0x89,
    0x86, 0x98, 0x7a, 0x82, 0x85, 0x84, 0x67, 0x7e, 0x7f, 0x9c,
    0x87, 0x91, 0x8c, 0x8b, 0x75, 0x8c, 0x8a, 0xa2, 0x98, 0x8d,
    0x8d, 0x9c, 0x99, 0x97, 0x9c, 0x99, 0x94, 0x98, 0x96, 0x99,
    0x9c, 0x8f, 0x91, 0x79, 0x7f, 0x7f, 0x8a, 0x8b, 0x8d, 0x83,
    0x84, 0x75, 0x86, 0x8b, 0xa2, 0xaa, 0x8b, 0x92, 0x8e, 0xa1,
    0xa1, 0x9c, 0xac, 0x95, 0x91, 0xa1, 0xaf, 0x9e, 0x96, 0x95,
    0x73, 0x74, 0x66, 0x6c, 0x6e, 0x8d, 0x9a, 0x97, 0x7c, 0x74,
    0x8f, 0x79, 0xa2, 0x9b, 0x98, 0x95, 0x9a, 0x94, 0x9b, 0xad,
    0x97, 0xa5, 0x88, 0x9c, 0x9b, 0xae, 0x93, 0xa0, 0x70, 0x66,
    0x59, 0x61, 0x77, 0xa1, 0x8c, 0x8d, 0x7f, 0x70, 0x8d, 0x7f,
    0x88, 0xa0, 0x94, 0x92, 0x8d, 0x93, 0x8d, 0xa3, 0xa2, 0x9d,
    0x93, 0x8a, 0x95, 0x96, 0xa5, 0xa4, 0x73, 0x6b, 0x59, 0x77,
    0x89, 0x85, 0x94, 0x95, 0x89, 0x8f, 0x9a, 0x7c, 0x98, 0x7e,
    0x9e, 0x8f, 0xa2, 0xa5, 0x94, 0x95, 0x9d, 0x87, 0x9e, 0x8e,
    0xad, 0x8d, 0xa8, 0x91, 0x71, 0x6c, 0x79, 0x82, 0xa2, 0x90,
    0x9d, 0x8f, 0x8a, 0x93, 0x96, 0x7d, 0x84, 0x91, 0x9d, 0x9e,
    0xb5, 0x9c, 0x9d, 0x91, 0x9b, 0x85, 0xa2, 0x89, 0x90, 0x8a,
    0x9c, 0x99, 0x8a, 0x82, 0x6a, 0x6f, 0x9c, 0x97, 0x88, 0x9c,
    0x85, 0x89, 0x8b, 0x77, 0x7c, 0x80, 0xa7, 0x9f, 0xa2, 0x9b,
    0x85, 0x96, 0x9e, 0x8d, 0x87, 0x80, 0x90, 0x9c, 0x88, 0x94,
    0xa0, 0x7f, 0x66, 0x6a, 0x99, 0x87, 0x8b, 0xa2, 0x8a, 0x7c,
    0x93, 0x7f, 0x76, 0x7d, 0x86, 0xa9, 0x95, 0x86, 0x8b, 0x95,
    0x95, 0x93, 0x85, 0x96, 0x96, 0x93, 0x9c, 0x8d, 0x81, 0x6f,
    0x72, 0x7b, 0x9e, 0x8e, 0xa0, 0x98, 0x83, 0x85, 0x8d, 0x9e,
    0x97, 0x80, 0x7c, 0x88, 0x9e, 0xa6, 0xa9, 0x97, 0x95, 0x81,
    0x7e, 0x85, 0x96, 0x93, 0x84, 0x89, 0x89, 0x86, 0x86, 0x8e,
    0x90, 0x8f, 0x90, 0x8b, 0x8f, 0x8d, 0x94, 0x9b, 0x83, 0x87,
    0x73, 0x86, 0x85, 0x9c, 0xa3, 0x93, 0xa3, 0x96, 0x8f, 0x7b,
    0x84, 0x86, 0x95, 0x8c, 0xa0, 0xa3, 0xa2, 0xab, 0x86, 0x8d,
    0xa0, 0x8e, 0x8b, 0x89, 0x9e, 0x96, 0x84, 0x83, 0x83, 0x90,
    0x90, 0x95, 0xa5, 0x90, 0x93, 0x84, 0x8f, 0x8a, 0x7f, 0x88,
    0x8f, 0x7f, 0x95, 0x93, 0xa8, 0x97, 0x9b, 0x8c, 0x98, 0x8c,
    0x9e, 0x82, 0x88, 0x86, 0x88, 0x81, 0x8e, 0x90, 0x90, 0x79,
    0x8d, 0x9f, 0xa1, 0x98, 0x9c, 0x8c, 0x8c, 0x88, 0x9e, 0x8b,
    0x8b, 0x9e, 0x95, 0x93, 0x9b, 0xa2, 0x86, 0x85, 0x91, 0x80,
    0x88, 0x7f, 0x7d, 0x8d, 0x94, 0x9c, 0x8e, 0x8b, 0x98, 0x91,
    0x85, 0x92, 0x8e, 0x8e, 0x85, 0x8d, 0xa9, 0xa3, 0xaa, 0xa1,
    0x99, 0x96, 0xa0, 0x8f, 0x8a, 0x91, 0x84, 0x7b, 0x9a, 0xa0,
    0x97, 0x92, 0x9d, 0x84, 0x86, 0x95, 0x8c, 0x87, 0x85, 0x90,
    0x92, 0x9c, 0x9c, 0x92, 0xb1, 0xac, 0xa1, 0xad, 0x96, 0x86,
    0x9b, 0x8d, 0x9d, 0x8d, 0x99, 0x8c, 0xa5, 0xa3, 0xa3, 0xa9,
    0x9f, 0xaa, 0x98, 0xa2, 0x9a, 0xa6, 0x9d, 0xab, 0xbb, 0xb4,
    0xb3, 0xc5, 0xb6, 0xbb, 0xa9, 0xa7, 0xa7, 0x98, 0x88, 0x94,
    0x95, 0x96, 0x8d, 0x97, 0xac, 0xbb, 0xb5, 0xa3, 0xac, 0xba,
    0xa9, 0xac, 0xbd, 0xa1, 0xc8, 0xca, 0xc5, 0xcb, 0xd0, 0xcd,
    0xd6, 0xd2, 0x9c, 0xa4, 0x97, 0xa1, 0x86, 0xa1, 0x9a, 0x86,
    0x9b, 0x96, 0x91, 0x96, 0x94, 0x91, 0x87, 0x89, 0x9e, 0x91,
    0x94, 0x8d, 0xa5, 0xb1, 0x8c, 0xa6, 0xa2, 0x9b, 0x94, 0x8e,
    0x8c, 0xa1, 0x94, 0x9c, 0x98, 0x8a, 0x86, 0x8e, 0x8b, 0x8f,
    0x8f, 0x99, 0x87, 0xa2, 0x89, 0x9e, 0x9b, 0x98, 0x8d, 0x8e,
    0x91, 0x98, 0x86, 0xa1, 0x8a, 0x98, 0xa1, 0x9a, 0x86, 0x9b,
    0x8f, 0x9f, 0x93, 0x8b, 0xa1, 0x92, 0x87, 0x97, 0x90, 0x9b,
    0x94, 0x93, 0xa1, 0x92, 0x84, 0x9c, 0x9c, 0x9d, 0x8e, 0x8f,
    0x94, 0x90, 0x93, 0xa1, 0xa0, 0x8f, 0x9e, 0x98, 0x8e, 0x97,
    0x92, 0x8e, 0x90, 0x9e, 0x9c, 0x9a, 0xa6, 0x9c, 0x9d, 0x86,
    0x9a, 0x8b, 0x8a, 0x8a, 0x97, 0x84, 0x94, 0x7b, 0x87, 0x7a,
    0x71, 0x80, 0x7b, 0x90, 0x89, 0x95, 0x96, 0x9b, 0x9b, 0x8e,
    0x91, 0x8c, 0x87, 0xa9, 0x93, 0x88, 0x8c, 0x7e, 0x74, 0x72,
    0x7c, 0x7e, 0x9b, 0x8f, 0x8e, 0x9d, 0x8d, 0x91, 0x86, 0x78,
    0x8a, 0x87, 0x6c, 0x8c, 0x91, 0x92, 0x9f, 0x88, 0x8b, 0x9e,
    0x94, 0x9f, 0x9c, 0x8a, 0x87, 0x75, 0x76, 0x6d, 0x63, 0x67,
    0x84, 0x89, 0x9f, 0xaa, 0x9f, 0x9e, 0x89, 0x89, 0x7c, 0x8b,
    0x83, 0xa1, 0x93, 0x97, 0xa4, 0x8e, 0x9d, 0x92, 0x93, 0xa4,
    0x9d, 0xa2, 0x8f, 0x82, 0x7e, 0x86, 0x7b, 0x71, 0x85, 0xa2,
    0x97, 0x88, 0x7f, 0x8a, 0x82, 0x7a, 0x84, 0x7b, 0x81, 0x81,
    0x87, 0x99, 0x9f, 0x9c, 0x85, 0x98, 0x95, 0xa1, 0x99, 0xc0,
    0x9f, 0xa4, 0x90, 0x91, 0x87, 0x87, 0x93, 0x8c, 0x97, 0x8c,
    0x8d, 0x88, 0x9b, 0x95, 0x8a, 0xa4, 0xa1, 0x89, 0x84, 0x87,
    0xa4, 0x9f, 0x8f, 0x85, 0xa1, 0x93, 0x8c, 0x97, 0xa8, 0xa1,
    0x8f, 0x87, 0xaa, 0x91, 0x9f, 0x9f, 0x9e, 0x99, 0xa4, 0x9d,
    0xa7, 0x93, 0xa5, 0x9f, 0x8e, 0x99, 0x98, 0x9d, 0x99, 0x93,
    0x9e, 0xa8, 0xac, 0xa3, 0x8b, 0xa1, 0x8b, 0x97, 0x9c, 0x89,
    0x93, 0xb4, 0xc2, 0x9d, 0x9e, 0xb2, 0xb3, 0xb5, 0xba, 0xa0,
    0xab, 0xac, 0xa7, 0xad, 0xbd, 0xa8, 0x9e, 0xa2, 0xa1, 0xb6,
    0xbf, 0xb8, 0x9b, 0x9e, 0x85, 0x9a, 0x7c, 0x96, 0x8d, 0x8a,
    0xa0, 0xb5, 0xa8, 0x94, 0xbc, 0xc5, 0xa4, 0xab, 0xa2, 0xa5,
    0x94, 0xaa, 0xc0, 0xb5, 0xa9, 0xa4, 0x94, 0xa2, 0xc3, 0x99,
    0x9d, 0xac, 0x92, 0x9c, 0x90, 0xa5, 0x84, 0x90, 0x9f, 0xa5,
    0xab, 0x9f, 0xac, 0xaf, 0x9a, 0x93, 0xa6, 0xa4, 0x97, 0xaa,
    0xab, 0xb2, 0xb7, 0x96, 0x98, 0xad, 0xcd, 0xbe, 0x93, 0x77,
    0xa3, 0xb2, 0x8d, 0x8d, 0x91, 0x94, 0x95, 0xb3, 0xa5, 0x98,
    0x8b, 0x9f, 0x92, 0x8a, 0xad, 0x9f, 0x9c, 0xb4, 0xb1, 0xcb,
    0xa4, 0x86, 0x97, 0x9b, 0xbd, 0xad, 0xa9, 0x8d, 0x9a, 0xa3,
    0x9a, 0xaa, 0x9e, 0x97, 0x99, 0x84, 0x93, 0x98, 0x83, 0x85,
    0x9b, 0x97, 0x8f, 0x9f, 0xb2, 0xa4, 0x9f, 0xa2, 0xa6, 0x84,
    0x9b, 0x9a, 0xa7, 0xab, 0x9e, 0x9d, 0x97, 0x8c, 0x9f, 0x96,
    0x99, 0x8c, 0x8f, 0x82, 0x82, 0x94, 0x85, 0x79, 0x92, 0x8e,
    0x78, 0x9e, 0xa5, 0x9f, 0x9c, 0x87, 0x9d, 0x95, 0x9e, 0x9c,
    0x9b, 0x96, 0x8a, 0x9c, 0xa2, 0x8f, 0x98, 0x99, 0xa8, 0x94,
    0x8b, 0x93, 0x85, 0x87, 0x73, 0x86, 0x86, 0x8b, 0x80, 0x94,
    0xa5, 0xa7, 0xa8, 0x86, 0x8c, 0x94, 0x89, 0x89, 0x85, 0x8d,
    0xa4, 0xa1, 0xa0, 0xa2, 0x79, 0x8a, 0xa1, 0x8b, 0x88, 0x7f,
    0x84, 0x90, 0x83, 0x90, 0x8a, 0x7e, 0x8e, 0x95, 0x9d, 0xa5,
    0xb4, 0x8f, 0x8c, 0x8d, 0x95, 0x7f, 0x91, 0x80, 0x9d, 0xa9,
    0xa1, 0x8a, 0xa6, 0x86, 0x9f, 0x8d, 0x78, 0x74, 0x7c, 0x83,
    0x82, 0x9c, 0x78, 0x78, 0x83, 0x78, 0x7e, 0x95, 0x9b, 0x8e,
    0x77, 0x9b, 0x97, 0x9a, 0x82, 0x7a, 0x86, 0x9b, 0x94, 0x8c,
    0xa3, 0xab, 0x9c, 0x8e, 0x7d, 0x84, 0x8f, 0x91, 0x9b, 0x97,
    0x7b, 0x89, 0x7e, 0x7b, 0x95, 0x96, 0x9c, 0x73, 0x7b, 0x90,
    0x96, 0x83, 0x93, 0x6b, 0x7e, 0x94, 0xa8, 0x93, 0xa1, 0x9c,
    0x94, 0x92, 0x86, 0x7a, 0x8f, 0x98, 0x8d, 0x9b, 0x92, 0x72,
    0x7e, 0x8c, 0x9a, 0xa0, 0x8e, 0x80, 0x7e, 0x97, 0x90, 0x9c,
    0x95, 0x58, 0x8a, 0x9c, 0x92, 0x97, 0xab, 0x94, 0x8e, 0x8a,
    0x9d, 0x8b, 0x8d, 0x84, 0x89, 0x95, 0x8a, 0x79, 0x88, 0x8c,
    0x9b, 0x8f, 0x92, 0x93, 0x90, 0x90, 0x9f, 0x98, 0x88, 0x5d,
    0x69, 0x93, 0x8d, 0x80, 0x9d, 0x87, 0x9f, 0x9b, 0x8c, 0x84,
    0x8e, 0x95, 0x7a, 0x98, 0x73, 0x81, 0x83, 0x8b, 0xa0, 0x9b,
    0x93, 0x9f, 0x8f, 0x8f, 0x8c, 0x84, 0x85, 0x75, 0x75, 0x89,
    0x85, 0x99, 0x78, 0x89, 0x9c, 0x94, 0x8f, 0x96, 0x88, 0x7a,
    0x8d, 0x94, 0x70, 0x70, 0x87, 0x87, 0x8c, 0x90, 0x98, 0xa3,
    0x8f, 0x9e, 0x89, 0x97, 0x76, 0x67, 0x79, 0x8e, 0x93, 0xab,
    0xa2, 0xa0, 0x94, 0x9d, 0xa2, 0x86, 0x9b, 0x94, 0x8f, 0x88,
    0x7d, 0x79, 0x7e, 0x8c, 0x9c, 0x7e, 0xa2, 0x93, 0x89, 0x9a,
    0x92, 0x8b, 0x7e, 0x78, 0x86, 0x89, 0x9a, 0xa2, 0x89, 0x7f,
    0x8d, 0x94, 0x92, 0x96, 0x95, 0x8e, 0x9a, 0x8c, 0x74, 0x79,
    0x84, 0x8c, 0x75, 0x93, 0x8b, 0x85, 0x7b, 0x8c, 0x8b, 0x95,
    0x9f, 0x8c, 0xbb, 0xa2, 0x8c, 0x95, 0x9a, 0x92, 0x91, 0x9b,
    0xac, 0xa4, 0x85, 0xaa, 0x9b, 0x92, 0x80, 0x78, 0x90, 0x7f,
    0x7f, 0x79, 0x8d, 0x81, 0x98, 0x98, 0x8d, 0x9f, 0x9e, 0xab,
    0xbe, 0xc2, 0x9e, 0xa5, 0xa5, 0x98, 0x96, 0xae, 0xa0, 0x95,
    0xae, 0xad, 0xb4, 0x9d, 0x8d, 0x9d, 0xa9, 0x93, 0x97, 0xa8,
    0xa5, 0x9a, 0x90, 0x87, 0x9e, 0x88, 0xa0, 0x93, 0xa9, 0xb7,
    0xab, 0xa5, 0xb6, 0xbe, 0xab, 0xb3, 0xaa, 0xc0, 0xc6, 0xb0,
    0xbd, 0xa9, 0xd1, 0xbd, 0xc3, 0xa4, 0x9b, 0x95, 0x83, 0xa0,
    0x86, 0x90, 0x87, 0xa2, 0x88, 0x9f, 0x90, 0x9a, 0xa6, 0xb1,
    0xb4, 0xbf, 0xbc, 0xce, 0xc7, 0xc4, 0xbe, 0xb6, 0xc5, 0xc5,
    0xb6, 0xb7, 0xa0, 0x9b, 0x98, 0xa2, 0x98, 0x94, 0x88, 0x97,
    0x98, 0x92, 0x91, 0x9c, 0x90, 0x99, 0x86, 0x89, 0x97, 0x87,
    0x8b, 0xa1, 0x96, 0x89, 0x8a, 0x9b, 0x94, 0x96, 0x8e, 0x99,
    0x93, 0xa2, 0x90, 0x89, 0x87, 0x8c, 0x94, 0x99, 0xa1, 0x94,
    0x9d, 0x88, 0x9a, 0x86, 0x8b, 0x9d, 0xa2, 0xa3, 0xa5, 0xa4,
    0xa0, 0x91, 0x97, 0x99, 0x9e, 0xb5, 0x91, 0x93, 0x8b, 0xa1,
    0x90, 0x95, 0x93, 0x88, 0x9f, 0x9a, 0x86, 0x95, 0x93, 0x88,
    0x84, 0x8d, 0x8c, 0x9b, 0xa2, 0xb4, 0x9f, 0x94, 0x94, 0xa7,
    0xab, 0xbd, 0xac, 0xb2, 0x95, 0x7c, 0x82, 0x7f, 0x7a, 0x92,
    0x90, 0x96, 0x9a, 0x95, 0x91, 0xa1, 0x8a, 0x8f, 0x84, 0xa5,
    0xbe, 0xbb, 0xa7, 0xa9, 0xa5, 0xb8, 0xa2, 0xb4, 0x9c, 0x91,
    0xa5, 0x9c, 0x9e, 0x93, 0x86, 0x8f, 0x8b, 0x87, 0x89, 0x86,
    0x9a, 0x8d, 0x8d, 0x95, 0x91, 0x9a, 0x95, 0xaf, 0xc3, 0xb8,
    0x99, 0x9a, 0x92, 0x91, 0xa3, 0xaa, 0x92, 0x95, 0x9d, 0x8c,
    0x9b, 0xaf, 0xa6, 0x96, 0x8c, 0x89, 0x9c, 0x85, 0x90, 0x98,
    0xa0, 0x9b, 0x9b, 0xa5, 0xab, 0xbc, 0xab, 0xa9, 0x94, 0xa1,
    0x94, 0x99, 0x8d, 0x85, 0x83, 0x96, 0x8f, 0x96, 0x89, 0xa0,
    0x97, 0xa1, 0x9a, 0x94, 0x92, 0x88, 0x7b, 0x95, 0x97, 0x8a,
    0xa2, 0x9d, 0xb0, 0x9b, 0xae, 0x94, 0x8d, 0x94, 0x98, 0x9a,
    0x94, 0x88, 0x9f, 0x8f, 0x98, 0xa0, 0x9d, 0x9c, 0x8c, 0x99,
    0x8c, 0x96, 0x8e, 0x82, 0x86, 0x8b, 0x8c, 0x9f, 0x9c, 0xb1,
    0x9a, 0x8b, 0x8e, 0x8d, 0x88, 0x9d, 0x94, 0x9d, 0x94, 0x95,
    0x8a, 0x93, 0xa0, 0x96, 0x9c, 0x9d, 0x93, 0xa6, 0xa3, 0x89,
    0x83, 0x7a, 0x93, 0x89, 0x99, 0xa8, 0x93, 0xa0, 0x99, 0x8e,
    0x8d, 0x9f, 0x8f, 0x92, 0x9e, 0x97, 0x9c, 0x8a, 0x96, 0x98,
    0x93, 0xaa, 0xa1, 0x9e, 0x9e, 0x92, 0xa8, 0x8a, 0x80, 0x6e,
    0x90, 0x97, 0xa1, 0xa4, 0xa6, 0x8c, 0xa4, 0xb0, 0x96, 0x8b,
    0xa4, 0xa8, 0x9e, 0xab, 0x99, 0x89, 0x80, 0x8b, 0xa2, 0xa7,
    0x8e, 0x9a, 0x92, 0x98, 0x9c, 0x9f, 0x70, 0x7a, 0x85, 0x8c,
    0x92, 0x94, 0xa7, 0x82, 0x8d, 0xa2, 0x99, 0x93, 0x9f, 0xa2,
    0xa1, 0x95, 0x8a, 0x72, 0x66, 0x78, 0x9f, 0x9f, 0x95, 0x96,
    0x7f, 0x93, 0x92, 0x92, 0x7c, 0x81, 0x8a, 0x89, 0x9f, 0x95,
    0xa3, 0x9c, 0x90, 0xa2, 0xa6, 0x96, 0xa9, 0x97, 0x7d, 0x6b,
    0x59, 0x55, 0x5d, 0x8a, 0x99, 0x8e, 0x7f, 0x86, 0x83, 0x8e,
    0x92, 0x94, 0x93, 0x8e, 0x95, 0x88, 0x92, 0x8e, 0x91, 0x83,
    0x77, 0x7b, 0x7c, 0x7c, 0x7e, 0x62, 0x5b, 0x4e, 0x51, 0x68,
    0x82, 0x8f, 0x9c, 0x93, 0x8f, 0x78, 0x8a, 0x87, 0x95, 0x89,
    0x96, 0x9d, 0xa9, 0x8c, 0x86, 0x92, 0x92, 0x8a, 0x7e, 0x79,
    0x46, 0x51, 0x3e, 0x3e, 0x3d, 0x67, 0x79, 0x8e, 0x82, 0x83,
    0x8a, 0x87, 0x96, 0x86, 0x75, 0x90, 0x86, 0x7c, 0x9d, 0x9e,
    0xa6, 0xa2, 0x9d, 0x8a, 0x9d, 0x8e, 0x63, 0x47, 0x53, 0x44,
    0x4d, 0x5d, 0x8e, 0x93, 0xa8, 0xa3, 0x8b, 0x86, 0x8f, 0x8b,
    0x8f, 0x9f, 0x8c, 0x8c, 0x92, 0x8d, 0xb2, 0x97, 0xb1, 0x89,
    0x96, 0x9c, 0x9a, 0x7b, 0x71, 0x7b, 0x73, 0x6b, 0x8a, 0xa8,
    0xa4, 0xa5, 0x8c, 0x9a, 0x9a, 0x8f, 0x9c, 0x93, 0x8b, 0x9f,
    0x7d, 0x9d, 0x81, 0x91, 0xb3, 0xa3, 0x9f, 0x8f, 0x91, 0x91,
    0x98, 0x87, 0x82, 0x89, 0x95, 0xa1, 0x9f, 0xab, 0xa5, 0xa1,
    0xa3, 0x96, 0x84, 0x9c, 0x8e, 0x98, 0x89, 0x90, 0x8c, 0x8d,
    0x87, 0x89, 0xa0, 0xb8, 0xa2, 0x89, 0x91, 0x8c, 0x88, 0x95,
    0xa3, 0x9c, 0x9b, 0x9a, 0x99, 0x94, 0x9f, 0x8e, 0x8e, 0x9d,
    0x9b, 0xa3, 0x94, 0x8a, 0x9b, 0x87, 0x7b, 0x85, 0x88, 0x92,
    0x95, 0xab, 0xa8, 0x8c, 0x8e, 0x86, 0x7b, 0xa6, 0xb6, 0x99,
    0x9c, 0xac, 0x8d, 0x90, 0x95, 0x9a, 0xa8, 0x93, 0x9d, 0x8e,
    0x8f, 0x95, 0x9f, 0x86, 0x94, 0x97, 0xaa, 0xa1, 0xac, 0xbb,
    0xbc, 0x8a, 0x93, 0x9a, 0x87, 0xa3, 0xad, 0x86, 0xa0, 0x9c,
    0xa5, 0x99, 0xa3, 0xad, 0x94, 0x9e, 0x85, 0x81, 0xa1, 0x98,
    0x83, 0x97, 0x93, 0x91, 0x92, 0x8e, 0x9c, 0xbf, 0xc3, 0x96,
    0x91, 0xa1, 0x8b, 0xa5, 0xbd, 0xa1, 0x85, 0x91, 0xb5, 0x9e,
    0x9a, 0xa1, 0x95, 0x97, 0x93, 0x8b, 0x97, 0x97, 0x88, 0xa3,
    0xa9, 0xa9, 0x9f, 0xa1, 0xa3, 0xc8, 0xc6, 0xa1, 0xa2, 0xa1,
    0xa1, 0xa6, 0xa9, 0x90, 0x93, 0x8a, 0x88, 0xa2, 0x91, 0x9f,
    0x9e, 0x89, 0x94, 0x95, 0x94, 0xa2, 0xad, 0xb7, 0x8d, 0x98,
    0xa0, 0xb3, 0xd5, 0xd3, 0xb5, 0x9a, 0x99, 0x84, 0x8b, 0xa3,
    0xad, 0xaa, 0x92, 0x97, 0x9b, 0x8f, 0x8f, 0x98, 0x88, 0x93,
    0x9f, 0x82, 0x8b, 0x98, 0x98, 0xa5, 0xa6, 0x9a, 0xb2, 0xa3,
    0xc1, 0xb9, 0xac, 0x9b, 0x8b, 0xa1, 0x98, 0x93, 0x93, 0xb1,
    0x99, 0xa1, 0x8f, 0x95, 0x9a, 0xa1, 0xa2, 0xa5, 0x8d, 0x84,
    0x7d, 0x86, 0x9b, 0x9b, 0xa0, 0xa4, 0xa7, 0xa0, 0xa8, 0xab,
    0x9d, 0x8a, 0x99, 0x99, 0x9b, 0x91, 0x9d, 0xab, 0x9e, 0x96,
    0x9b, 0xa0, 0x8f, 0x87, 0x94, 0x96, 0xa3, 0x93, 0x90, 0x84,
    0x82, 0x7b, 0x84, 0x96, 0x98, 0x9d, 0xac, 0x9c, 0x91, 0x8f,
    0x9e, 0x9a, 0x91, 0xad, 0xb6, 0xae, 0xb0, 0xa7, 0xc0, 0xac,
    0xa5, 0xa4, 0xa8, 0xa1, 0x98, 0xac, 0x8d, 0x77, 0x6a, 0x66,
    0x64, 0x88, 0x74, 0x84, 0x8e, 0x99, 0x8c, 0x9b, 0x9f, 0x87,
    0x9b, 0x8e, 0x99, 0x99, 0xb8, 0xd5, 0xd8, 0xc5, 0xcd, 0xc4,
    0xba, 0xc5, 0xca, 0xc4, 0xb4, 0x93, 0x96, 0x91, 0x8d, 0x87,
    0x94, 0x98, 0x9e, 0x96, 0x8e, 0x95, 0x8b, 0x9b, 0x96, 0x8d,
    0xa3, 0x92, 0xa3, 0x9d, 0x95, 0xb8, 0xcf, 0xcd, 0xd2, 0xdb,
    0xc3, 0xb9, 0xa0, 0x9d, 0x98, 0x8d, 0x86, 0x97, 0x92, 0x9f,
    0x8b, 0x95, 0x8d, 0x86, 0x9c, 0x9f, 0x92, 0x9b, 0xa0, 0x88,
    0x8b, 0x86, 0x93, 0x85, 0x9a, 0x95, 0x90, 0xa5, 0x9a, 0x95,
    0x97, 0x90, 0x96, 0x90, 0x8b, 0x87, 0x97, 0x9e, 0x8b, 0x98,
    0x9f, 0x9d, 0x9f, 0x96, 0x91, 0x8d, 0x9f, 0x94, 0x8b, 0x9f,
    0x9b, 0x9e, 0x9b, 0xb1, 0xc7, 0xae, 0xa4, 0x9d, 0xb1, 0xac,
    0xc3, 0xc5, 0xaf, 0xa5, 0x99, 0xa6, 0xa2, 0x8f, 0x97, 0x9c,
    0x8e, 0x92, 0x95, 0x9f, 0xad, 0x94, 0x9d, 0x9a, 0x9d, 0x8d,
    0xa5, 0xb1, 0xb3, 0xb6, 0xb0, 0xc0, 0xc7, 0xbb, 0xbc, 0xe4,
    0xed, 0xed, 0xea, 0xcb, 0xad, 0xa4, 0x9d, 0x8c, 0x95, 0x90,
    0x9e, 0x9d, 0x9d, 0xa2, 0x9b, 0x9e, 0xa4, 0x87, 0x8d, 0x95,
    0x85, 0xaa, 0x94, 0xa6, 0x9e, 0xad, 0xbc, 0xbc, 0xb1, 0xca,
    0xc2, 0xc6, 0xad, 0x92, 0x93, 0x8d, 0x9b, 0x96, 0x82, 0x87,
    0x97, 0xaf, 0x94, 0x8c, 0x7a, 0x74, 0x65, 0x7b, 0x71, 0x8d,
    0x92, 0x89, 0x88, 0xa5, 0x9b, 0x99, 0xa3, 0xab, 0x92, 0x93,
    0x8b, 0x88, 0x88, 0xa2, 0x94, 0x8d, 0x94, 0x82, 0xa6, 0x92,
    0x9d, 0x74, 0x70, 0x85, 0x8a, 0xa0, 0x93, 0x92, 0x89, 0x9e,
    0x96, 0xa1, 0x93, 0xa3, 0xa2, 0x9a, 0x9b, 0x9b, 0xa0, 0x9e,
    0x9b, 0x84, 0x91, 0x97, 0x8d, 0x87, 0xab, 0x9b, 0x90, 0x75,
    0x7a, 0x7b, 0x85, 0x93, 0x89, 0x95, 0xa8, 0xb0, 0x9d, 0xa8,
    0x94, 0x90, 0x94, 0xa0, 0x8c, 0x8f, 0x88, 0xaa, 0xa5, 0x89,
    0x95, 0x7c, 0x8e, 0x88, 0xa7, 0x90, 0x86, 0x73, 0x69, 0x72,
    0x7f, 0x87, 0x9f, 0x89, 0x8a, 0xa7, 0x9b, 0x9c, 0xa5, 0x8f,
    0xa5, 0x89, 0x98, 0x9c, 0x9d, 0x8a, 0x97, 0x9b, 0x99, 0x7d,
    0x90, 0x88, 0x8b, 0x9d, 0x89, 0x85, 0x64, 0x81, 0x9b, 0x92,
    0xa6, 0xa7, 0x88, 0x83, 0x94, 0x86, 0x9a, 0x96, 0x93, 0xa2,
    0x9c, 0x8d, 0x9c, 0x9d, 0xba, 0x84, 0x98, 0x93, 0x93, 0x89,
    0x86, 0x88, 0x83, 0x72, 0x7c, 0x8d, 0x97, 0x92, 0x96, 0xae,
    0x8f, 0x86, 0x83, 0x94, 0x8e, 0x92, 0x99, 0x8f, 0x87, 0x94,
    0x9a, 0xab, 0x8c, 0x85, 0x8b, 0x8b, 0x86, 0x80, 0x8b, 0x7f,
    0x79, 0x80, 0x97, 0x97, 0x93, 0x90, 0x9a, 0x98, 0xa9, 0x7a,
    0x79, 0x7c, 0x8f, 0x8c, 0x87, 0x99, 0x9f, 0x9e, 0x90, 0x8d,
    0x82, 0x93, 0x8f, 0x9a, 0x80, 0x5a, 0x72, 0x85, 0x88, 0x84,
    0x8c, 0xa5, 0x99, 0x9c, 0xa4, 0x9b, 0x91, 0x87, 0x97, 0x8f,
    0x96, 0x95, 0x92, 0x95, 0x9e, 0x9a, 0x73, 0x7a, 0x85, 0x94,
    0x9a, 0x83, 0x7e, 0x75, 0x85, 0x86, 0x92, 0x93, 0x96, 0x8e,
    0x9b, 0x9c, 0x9d, 0xb6, 0x8f, 0x90, 0x96, 0x91, 0x93, 0x8f,
    0xa6, 0xa9, 0xa1, 0xa2, 0x8f, 0x6b, 0x7c, 0x92, 0x9e, 0xa0,
    0x97, 0x79, 0xa5, 0x80, 0x7d, 0x92, 0x8c, 0x8f, 0x94, 0x98,
    0x97, 0xa6, 0x8b, 0xab, 0x9a, 0x94, 0x8f, 0x96, 0xa5, 0xa8,
    0xb0, 0xa1, 0x70, 0x6e, 0x7a, 0x84, 0x9b, 0x99, 0x82, 0x6d,
    0x9b, 0x89, 0x89, 0x93, 0x8e, 0x82, 0x96, 0xa2, 0x89, 0x99,
    0x93, 0x8c, 0x95, 0x8f, 0x90, 0x99, 0x8f, 0xb4, 0xa4, 0x76,
    0x57, 0x7f, 0x8a, 0x9c, 0x89, 0x94, 0x7c, 0x8e, 0xa8, 0x81,
    0x7b, 0x97, 0x93, 0x91, 0xa8, 0x94, 0xa9, 0x8e, 0x8c, 0x97,
    0x96, 0x99, 0x91, 0x97, 0x98, 0xa4, 0x9f, 0x7d, 0x72, 0x91,
    0x83, 0x8c, 0x83, 0x94, 0x96, 0x93, 0x9f, 0x74, 0x70, 0x7f,
    0x94, 0x8d, 0x94, 0x9d, 0xa7, 0x8d, 0x99, 0x8b, 0x96, 0x91,
    0x8f, 0x96, 0x97, 0x8c, 0x98, 0xa7, 0x80, 0x7e, 0x87, 0xa3,
    0x9f, 0x87, 0x94, 0x92, 0x8f, 0x67, 0x7e, 0x9a, 0x9f, 0xa4,
    0x9f, 0xa3, 0x97, 0x80, 0x9e, 0x9c, 0x9d, 0x9a, 0x89, 0x98,
    0x95, 0x97, 0x9c, 0x98, 0x7b, 0x7a, 0xa0, 0x8d, 0xa4, 0x91,
    0x96, 0x87, 0x77, 0x7a, 0x7f, 0x84, 0x95, 0xab, 0x98, 0xa2,
    0x8f, 0x7b, 0x8a, 0x9a, 0x9f, 0x9c, 0x7d, 0x8e, 0x8b, 0x7f,
    0x78, 0x7a, 0x87, 0x85, 0xa5, 0x88, 0x9f, 0x8b, 0x88, 0x8e,
    0x67, 0x8c, 0x7d, 0x98, 0xa3, 0x97, 0x9c, 0xa2, 0x99, 0x7d,
    0x83, 0x96, 0x8d, 0x8b, 0x8f, 0x8a, 0x9e, 0xa5, 0x9b, 0x7d,
    0x8d, 0x95, 0xa1, 0x95, 0x93, 0x93, 0x87, 0x80, 0x81, 0x8c,
    0x87, 0x88, 0x91, 0x85, 0x94, 0x88, 0x93, 0x93, 0x7e, 0x93,
    0x82, 0x97, 0x84, 0x88, 0x89, 0x8e, 0x96, 0x96, 0x8e, 0x9e,
    0x91, 0x97, 0x89, 0x8a, 0xa0, 0x90, 0x95, 0x86, 0x8e, 0x91,
    0x97, 0x9c, 0x8a, 0x93, 0x99, 0x8e, 0x85, 0x83, 0x77, 0x8e,
    0x8f, 0x82, 0x96, 0x92, 0x8a, 0x8a, 0x89, 0x93, 0x9f, 0x88,
    0x8d, 0x99, 0x93, 0x8d, 0x90, 0x8d, 0x8d, 0x8b, 0x8e, 0x8c,
    0xa2, 0xa1, 0xa1, 0xae, 0x9a, 0x9f, 0x91, 0x92, 0x91, 0x8f,
    0x91, 0x7a, 0x88, 0xa0, 0xa7, 0x9b, 0x8b, 0x9e, 0x98, 0x91,
    0x8b, 0x86, 0x77, 0x81, 0x96, 0x8b, 0xa2, 0x8d, 0x8e, 0xa3,
    0xa9, 0x9c, 0x9d, 0xa3, 0x99, 0x8d, 0x89, 0x8d, 0x94, 0x88,
    0x91, 0xa5, 0xad, 0x90, 0x7f, 0xa1, 0x92, 0x9f, 0x85, 0x91,
    0x80, 0x97, 0x8b, 0x96, 0x98, 0x91, 0x96, 0x88, 0x9d, 0xa1,
    0x96, 0xae, 0xac, 0x93, 0xa3, 0x9b, 0xa1, 0x84, 0xa2, 0x98,
    0x94, 0x8b, 0x94, 0xa1, 0x8b, 0x90, 0x9f, 0x88, 0x89, 0x9e,
    0x9e, 0x9c, 0x8f, 0x9b, 0xa0, 0x9c, 0x8b, 0xa8, 0x97, 0x9f,
    0xbb, 0xc3, 0xc1, 0xb3, 0xbf, 0x9e, 0xab, 0xa7, 0xac, 0x99,
    0x88, 0x9a, 0x8f, 0x92, 0xa1, 0x98, 0xb6, 0x9a, 0xa0, 0xa7,
    0xa3, 0x98, 0x9c, 0xa0, 0xa0, 0x9d, 0xb8, 0xa7, 0xb3, 0xb5,
    0xc2, 0xbf, 0xa7, 0xa4, 0x99, 0x93, 0x87, 0x9a, 0x8e, 0x85,
    0x88, 0x9f, 0x8b, 0x9b, 0xa0, 0x95, 0x90, 0x85, 0x9d, 0x97,
    0x98, 0x8b, 0x86, 0x9a, 0xa5, 0x9f, 0x8f, 0x82, 0x7e, 0x9a,
    0x97, 0x9a, 0x94, 0x95, 0x86, 0x8f, 0x91, 0x8c, 0x8c, 0x96,
    0x91, 0xa2, 0x86, 0x8f, 0x9c, 0x8a, 0x9e, 0x95, 0xa1, 0x8b,
    0x9d, 0x87, 0x9c, 0x8e, 0xa0, 0x8e, 0x9b, 0x86, 0x9a, 0x95,
    0x90, 0xa2, 0x90, 0x91, 0x88, 0x8f, 0x91, 0x8e, 0x94, 0x91,
    0x93, 0x9f, 0xa9, 0xaa, 0xae, 0xb4, 0xc8, 0xb8, 0xd2, 0xc4,
    0xac, 0x9f, 0x90, 0x9a, 0xaf, 0xbe, 0xa7, 0xa2, 0xa1, 0xa0,
    0x96, 0x99, 0x94, 0x8e, 0x88, 0x92, 0xa0, 0x8f, 0x8f, 0x9c,
    0xbb, 0xc1, 0xc1, 0xb6, 0xc9, 0xc2, 0xb5, 0xb4, 0xb8, 0xa5,
    0xa0, 0xbd, 0xc4, 0xdd, 0xd5, 0xf8, 0xd4, 0xc4, 0xa5, 0x9a,
    0x8b, 0x86, 0x9a, 0x88, 0x9e, 0x89, 0x93, 0xa8, 0xad, 0xb1,
    0xb7, 0xae, 0x96, 0x9d, 0x87, 0x91, 0x9e, 0xa2, 0x9f, 0x9e,
    0xa2, 0xa6, 0xb3, 0xa9, 0xc4, 0xcb, 0xb2, 0xa1, 0xa0, 0x97,
    0x95, 0xa0, 0x96, 0x85, 0x9d, 0x90, 0x9c, 0xa2, 0x98, 0x98,
    0x90, 0x81, 0x7e, 0x88, 0x9a, 0x95, 0x8e, 0x9e, 0x96, 0xa4,
    0xaa, 0x9e, 0xad, 0xb0, 0xa4, 0x97, 0x86, 0x9f, 0x94, 0x95,
    0x90, 0x8e, 0x90, 0x84, 0x89, 0x9a, 0x90, 0x8b, 0x7e, 0x94,
    0xa3, 0x8e, 0x9f, 0x8e, 0x8c, 0x85, 0x8a, 0x8e, 0xa0, 0xa1,
    0x9c, 0xa5, 0xae, 0x96, 0x8f, 0x99, 0xa0, 0x9e, 0x8f, 0x7b,
    0x7e, 0x7f, 0x84, 0x98, 0x8f, 0x88, 0x7a, 0x85, 0x8f, 0x94,
    0x91, 0x8e, 0x8b, 0x9d, 0x93, 0x90, 0x92, 0x86, 0x8c, 0xa1,
    0xa5, 0x99, 0x94, 0x8b, 0x99, 0x84, 0x9a, 0x7e, 0x89, 0x98,
    0x87, 0x84, 0x97, 0x99, 0x86, 0x80, 0x81, 0x8f, 0x92, 0x95,
    0x81, 0x93, 0xa0, 0x96, 0x9b, 0xa6, 0x9e, 0x9e, 0x8f, 0x81,
    0x7b, 0xa1, 0x9c, 0x9d, 0x93, 0x91, 0x87, 0x98, 0x99, 0xa0,
    0x92, 0x8c, 0x80, 0x7f, 0x85, 0x85, 0x8d, 0x8d, 0x90, 0x7d,
    0x83, 0x84, 0x8b, 0x88, 0x97, 0x79, 0x8c, 0x87, 0x96, 0xa1,
    0x87, 0x90, 0x8b, 0x85, 0x85, 0x8d, 0x92, 0xa7, 0x95, 0x90,
    0x87, 0x79, 0x7c, 0x87, 0x87, 0x98, 0x9d, 0x8e, 0x7b, 0x84,
    0x94, 0x87, 0x82, 0x9c, 0x89, 0x85, 0x90, 0x96, 0x8d, 0x83,
    0x7f, 0x97, 0xa0, 0x85, 0xa4, 0x96, 0x97, 0x98, 0x9a, 0x8c,
    0x73, 0x83, 0x8f, 0x81, 0x80, 0x7d, 0x8f, 0x7c, 0x87, 0x73,
    0x80, 0x99, 0x9d, 0x97, 0x8e, 0x86, 0x98, 0x99, 0x8e, 0x8e,
    0x8e, 0xaa, 0xb0, 0xa0, 0xa2, 0x9f, 0xaa, 0x96, 0x7c, 0x74,
    0x75, 0x84, 0x6e, 0x68, 0x7b, 0x7c, 0x82, 0x8b, 0x98, 0xa3,
    0xb7, 0x9c, 0xb1, 0x93, 0x8c, 0x86, 0x97, 0x7b, 0x9c, 0x9c,
    0xa2, 0xb0, 0xa5, 0x96, 0xa5, 0x9e, 0x97, 0x76, 0x6a, 0x7f,
    0x87, 0x93, 0x84, 0x87, 0x94, 0x9c, 0xae, 0xb4, 0xab, 0xa2,
    0x93, 0x81, 0x92, 0x92, 0x8d, 0x8d, 0x91, 0x96, 0x99, 0xa7,
    0xa5, 0xb1, 0xb2, 0xa9, 0xa4, 0x96, 0x94, 0x99, 0x9e, 0x98,
    0x8d, 0xa2, 0xa5, 0xa2, 0xb3, 0x9c, 0xa3, 0x94, 0x7e, 0x8e,
    0xa2, 0xa1, 0x9b, 0x92, 0x84, 0x98, 0xa2, 0xa2, 0xa3, 0xab,
    0xb1, 0xa7, 0xa4, 0x95, 0x9d, 0x92, 0xa8, 0xaa, 0x9a, 0x9f,
    0x8a, 0x82, 0x84, 0x9d, 0x8c, 0x93, 0x87, 0x9a, 0x8d, 0x95,
    0x9e, 0xb3, 0x90, 0x95, 0xa1, 0x89, 0xa4, 0xaa, 0xad, 0xa8,
    0xa8, 0x99, 0xae, 0x8d, 0x99, 0x97, 0x9d, 0x8d, 0x8d, 0x7f,
    0x9b, 0x87, 0x98, 0xa4, 0x87, 0x85, 0x8f, 0x90, 0x8d, 0x9c,
    0x89, 0x80, 0xa1, 0x98, 0x98, 0x8f, 0x93, 0xa0, 0xa3, 0xaf,
    0xa0, 0x9e, 0x9c, 0x9e, 0x96, 0x88, 0x81, 0x85, 0x91, 0x91,
    0x90, 0x99, 0x73, 0x98, 0x8d, 0x8f, 0x88, 0x8a, 0x73, 0x83,
    0x90, 0x8f, 0x9c, 0x97, 0x98, 0x91, 0xa6, 0x9b, 0x94, 0x9a,
    0x99, 0xa7, 0x99, 0x92, 0x94, 0xa0, 0x99, 0x8d, 0x90, 0x83,
    0x7c, 0x8e, 0x8a, 0x8d, 0x96, 0x73, 0x6d, 0x7c, 0x86, 0x81,
    0x91, 0x9c, 0xa6, 0x93, 0xb5, 0xab, 0x97, 0x93, 0x96, 0x8b,
    0x80, 0x96, 0x8f, 0x8c, 0x8a, 0x87, 0x8f, 0x7b, 0x91, 0x97,
    0xa0, 0x89, 0x8b, 0x7d, 0x6a, 0x82, 0x83, 0x85, 0x9e, 0x94,
    0x95, 0x9e, 0x94, 0x9e, 0x8e, 0x95, 0x82, 0x92, 0x8b, 0x9b,
    0x99, 0x96, 0x8a, 0x98, 0x9f, 0x96, 0x8e, 0x81, 0xa0, 0x9c,
    0x87, 0x85, 0x68, 0x80, 0x8c, 0x8d, 0x96, 0x9a, 0xa6, 0x8d,
    0xa4, 0x95, 0x9b, 0xab, 0x88, 0x9f, 0x9e, 0x8e, 0x97, 0x8c,
    0x92, 0xa3, 0xa0, 0x85, 0x99, 0x96, 0x9c, 0x94, 0x96, 0x87,
    0x65, 0x78, 0x7f, 0x9b, 0x9b, 0xa1, 0x98, 0x8f, 0x95, 0xac,
    0xaa, 0x9f, 0x93, 0xa1, 0xa1, 0x92, 0x85, 0x97, 0xa8, 0xac,
    0xa3, 0x95, 0x88, 0x94, 0x91, 0x98, 0x96, 0x8d, 0x7c, 0x95,
    0x8d, 0x94, 0x90, 0x8d, 0x94, 0x92, 0xa4, 0x98, 0x9c, 0x9d,
    0xac, 0x9b, 0x8d, 0x9b, 0xa0, 0x9c, 0x94, 0x9d, 0xa0, 0x98,
    0x94, 0x85, 0x97, 0x9d, 0x93, 0x8e, 0x91, 0x92, 0xa0, 0x95,
    0x98, 0x93, 0x9e, 0x91, 0x88, 0x9b, 0x91, 0x9c, 0x9b, 0xa2,
    0xad, 0xa2, 0xa7, 0xaa, 0xa1, 0xb1, 0xa2, 0x92, 0x88, 0x9b,
    0x9b, 0xa0, 0x9a, 0xa5, 0x9b, 0x92, 0x9a, 0x9f, 0xa1, 0xa6,
    0xa1, 0xb4, 0x98, 0xa8, 0xa0, 0xa7, 0xa6, 0x8f, 0x95, 0xa7,
    0xb1, 0xad, 0xa3, 0xab, 0x8e, 0x91, 0x8e, 0x89, 0x88, 0x89,
    0xa2, 0x93, 0xaa, 0x97, 0xaf, 0x95, 0xa7, 0xa0, 0xa5, 0x9d,
    0xa2, 0x9e, 0xa1, 0x99, 0xa5, 0xa9, 0xb6, 0xb7, 0x93, 0xa4,
    0xa9, 0xb4, 0x9d, 0x95, 0x95, 0x8e, 0x9f, 0x88, 0xa1, 0x9c,
    0x97, 0xa0, 0x9f, 0xa2, 0x9f, 0x99, 0x9a, 0xb3, 0xc0, 0xab,
    0x8b, 0x95, 0xa7, 0x92, 0xa9, 0x8f, 0x9e, 0xa0, 0x8b, 0x9d,
    0x9c, 0x9c, 0x9d, 0x86, 0x90, 0x9c, 0x9c, 0x8c, 0x9e, 0x9a,
    0x95, 0x8a, 0x8b, 0x91, 0x96, 0xa6, 0xa5, 0x8e, 0xab, 0x97,
    0x8d, 0x91, 0x92, 0x99, 0x90, 0x9a, 0x8a, 0x92, 0x88, 0x8e,
    0x8a, 0x8f, 0xa0, 0x98, 0xa2, 0x99, 0x91, 0x97, 0x93, 0xa0,
    0x8f, 0x88, 0x90, 0x9a, 0x8e, 0x8d, 0x85, 0xa2, 0xa1, 0x9f,
    0x8d, 0x86, 0x99, 0xa0, 0xa0, 0x95, 0x9b, 0x93, 0x9d, 0x94,
    0x9f, 0xa0, 0x8e, 0x91, 0x9a, 0x9e, 0x7d, 0x8c, 0x89, 0x83,
    0x84, 0x7d, 0x8d, 0x92, 0x77, 0x86, 0x7d, 0x7e, 0x8b, 0x80,
    0x8e, 0x8d, 0x8b, 0x83, 0x93, 0x97, 0x91, 0xa0, 0x91, 0xa1,
    0x8c, 0x9d, 0xa3, 0x8c, 0x93, 0x8b, 0x7c, 0x77, 0x60, 0x5f,
    0x4f, 0x4c, 0x56, 0x46, 0x58, 0x64, 0x67, 0x6e, 0x8b, 0x9b,
    0x86, 0x8f, 0x9c, 0x97, 0x9d, 0x94, 0x8c, 0x8f, 0x9d, 0x89,
    0x98, 0x9d, 0x81, 0x7e, 0x6f, 0x6f, 0x68, 0x64, 0x54, 0x6a,
    0x69, 0x54, 0x7b, 0x67, 0x84, 0x86, 0x93, 0xa4, 0xa4, 0xa0,
    0x9b, 0x9c, 0x9c, 0x86, 0x96, 0x94, 0x88, 0x9b, 0x98, 0x9f,
    0x85, 0x85, 0x94, 0x77, 0x71, 0x8a, 0x7a, 0x97, 0x87, 0x76,
    0x8b, 0x89, 0x8c, 0x91, 0xb7, 0xa5, 0xb8, 0xb2, 0xa5, 0xa5,
    0x9d, 0x8c, 0x8b, 0x8b, 0x8b, 0x8e, 0xa6, 0x8a, 0x99, 0x76,
    0x89, 0x91, 0xa1, 0x9b, 0x9d, 0x99, 0x8c, 0x83, 0x87, 0x7e,
    0x86, 0x9a, 0x93, 0x9f, 0xb0, 0x9d, 0x93, 0x92, 0x8b, 0x96,
    0x8f, 0x96, 0x9d, 0x90, 0xa2, 0x9c, 0x85, 0x7c, 0x93, 0x97,
    0x91, 0x90, 0x96, 0x9d, 0x90, 0x86, 0x99, 0x82, 0x8c, 0x83,
    0x9b, 0x96, 0x8d, 0x84, 0x9c, 0xa7, 0x97, 0xa3, 0x8d, 0x8d,
    0xae, 0xa6, 0x8e, 0x8c, 0x8d, 0x87, 0x97, 0x98, 0xa8, 0x99,
    0x96, 0xa5, 0x8b, 0x9f, 0x8f, 0x85, 0x8e, 0x9d, 0x96, 0x97,
    0x87, 0x8a, 0x9e, 0x9a, 0x98, 0x87, 0x8b, 0x9f, 0xc0, 0xbf,
    0x92, 0x7f, 0x7b, 0x83, 0x98, 0xa2, 0x97, 0x8e, 0x86, 0x7d,
    0x8f, 0xac, 0x8f, 0x91, 0x98, 0x80, 0x9c, 0x8a, 0x7b, 0x99,
    0x93, 0x90, 0x8a, 0x93, 0x92, 0xac, 0xb2, 0x99, 0x82, 0x9f,
    0x86, 0x8b, 0x96, 0xa3, 0x99, 0x97, 0x7b, 0x80, 0x9a, 0x99,
    0xa6, 0x9b, 0xa4, 0x93, 0x9a, 0x86, 0x77, 0x8e, 0x94, 0x70,
    0x81, 0x83, 0x9a, 0xab, 0xa8, 0xa8, 0xa1, 0xa7, 0x94, 0xa0,
    0xa0, 0xa5, 0xa7, 0xa4, 0x8f, 0x7b, 0x8b, 0x92, 0x9a, 0x9f,
    0xa1, 0xb2, 0x9a, 0x88, 0x8d, 0x80, 0x72, 0x8d, 0x77, 0x80,
    0x99, 0xa9, 0xa5, 0x95, 0x84, 0x97, 0x9d, 0xa6, 0x9d, 0x93,
    0xab, 0xa1, 0x82, 0x7f, 0x7b, 0x8c, 0x9c, 0x9a, 0x96, 0xa4,
    0x9a, 0x9e, 0x9c, 0x8f, 0x7b, 0x66, 0x90, 0x92, 0x8e, 0x98,
    0xbf, 0x9a, 0x96, 0x91, 0xa7, 0x97, 0xa0, 0xab, 0xa7, 0x9d,
    0x82, 0x76, 0x87, 0x78, 0x8f, 0x98, 0x92, 0x9c, 0xa7, 0x9e,
    0xa3, 0xa8, 0x87, 0x81, 0x85, 0x87, 0x8a, 0xa6, 0xbc, 0x8c,
    0x8c, 0x94, 0x99, 0xac, 0xb1, 0xa9, 0xaf, 0xa9, 0x9c, 0x74,
    0x89, 0x76, 0x9f, 0xa8, 0x9f, 0x9c, 0x95, 0xa8, 0xa8, 0x8e,
    0x82, 0x79, 0x91, 0x9a, 0x9e, 0xa1, 0xb6, 0x95, 0xa7, 0x98,
    0x9d, 0xa5, 0x9a, 0xad, 0xb1, 0x96, 0x86, 0x85, 0x7c, 0x8b,
    0x9b, 0x9c, 0x9d, 0x9c, 0xa8, 0x96, 0x9a, 0x8e, 0x7d, 0x89,
    0x8b, 0x96, 0x92, 0x89, 0x96, 0xa1, 0xa7, 0xa6, 0xaa, 0xa0,
    0x99, 0xab, 0x9c, 0x8c, 0x8f, 0x7a, 0x6c, 0x6d, 0x89, 0xa1,
    0xab, 0x97, 0x9a, 0x88, 0x89, 0x87, 0x82, 0x78, 0x78, 0x92,
    0x9e, 0x8f, 0x9e, 0x98, 0x99, 0x95, 0x94, 0xb1, 0xb4, 0x9e,
    0x90, 0x8b, 0x89, 0x7c, 0x6d, 0x81, 0x98, 0x93, 0xa0, 0x9b,
    0x9b, 0x95, 0x94, 0x6b, 0x86, 0x85, 0x88, 0x9d, 0x8c, 0x91,
    0x95, 0x89, 0xa5, 0xa5, 0xa2, 0xa2, 0xad, 0x9e, 0xae, 0x8f,
    0x95, 0x88, 0x95, 0x9d, 0x9c, 0xab, 0x9e, 0x89, 0x8c, 0x89,
    0x88, 0x7a, 0x92, 0x85, 0x8c, 0x9d, 0x8c, 0x9f, 0x90, 0x98,
    0x9a, 0xa4, 0x91, 0xaa, 0x9b, 0x9f, 0x86, 0x87, 0x7f, 0x80,
    0x9a, 0x99, 0xa4, 0xa7, 0xa5, 0x93, 0x91, 0x9c, 0x7d, 0x82,
    0x7f, 0x81, 0x96, 0x87, 0x8e, 0x90, 0x8c, 0x89, 0xaf, 0x9b,
    0x9f, 0x9a, 0x9f, 0x99, 0x84, 0x83, 0x81, 0x83, 0xa6, 0x8b,
    0x86, 0x8b, 0xa1, 0x9f, 0x87, 0x7e, 0x7c, 0x7c, 0x8a, 0x85,
    0x8f, 0x94, 0x8c, 0xa6, 0x8f, 0x89, 0xa9, 0x9d, 0xa1, 0x96,
    0x94, 0x72, 0x8a, 0x87, 0x96, 0x87, 0x81, 0x89, 0x8e, 0x96,
    0xa2, 0x9c, 0x8a, 0x83, 0x74, 0x78, 0x94, 0x9f, 0x9a, 0x8c,
    0x8c, 0x86, 0x90, 0x89, 0xa0, 0x9a, 0x96, 0x88, 0x8b, 0x82,
    0x90, 0xa0, 0x8f, 0x8b, 0x6e, 0x7f, 0x92, 0x85, 0x85, 0x7f,
    0x8c, 0x8c, 0x96, 0x93, 0x9d, 0xaf, 0x92, 0x91, 0x89, 0x88,
    0x81, 0x7a, 0x78, 0x96, 0x8d, 0x8e, 0x9c, 0x8b, 0x9d, 0x9f,
    0x9f, 0xa4, 0x7f, 0x98, 0x92, 0x9c, 0x89, 0x91, 0x8a, 0xa5,
    0x8e, 0x8d, 0xae, 0xa7, 0xa0, 0x9d, 0x96, 0x9a, 0x93, 0x78,
    0x85, 0x8b, 0x84, 0x85, 0x9b, 0x88, 0x9b, 0x8c, 0xa3, 0x8d,
    0x94, 0x9f, 0x99, 0x9c, 0xa6, 0xa0, 0x8f, 0xa3, 0xaa, 0xae,
    0xb6, 0x94, 0x84, 0xa1, 0xa0, 0x88, 0x92, 0x90, 0x98, 0x97,
    0x7b, 0x8a, 0x84, 0x92, 0x99, 0x84, 0x82, 0x8c, 0x7a, 0x80,
    0x9a, 0x8c, 0x9a, 0x91, 0xa7, 0xb0, 0xb1, 0x9c, 0xa1, 0x97,
    0xa0, 0x92, 0x98, 0x92, 0x89, 0x8d, 0x9d, 0x96, 0x8a, 0x89,
    0x95, 0xb5, 0x9f, 0x95, 0x8f, 0x9b, 0xa7, 0x95, 0xa0, 0xa4,
    0x88, 0xae, 0xc0, 0xc5, 0xcc, 0xae, 0xa8, 0xa3, 0x9c, 0x9b,
    0xa0, 0x89, 0x9b, 0xa1, 0xa1, 0xa2, 0x97, 0xb0, 0xcc, 0xd6,
    0xbb, 0xc3, 0xb2, 0xad, 0xaf, 0x93, 0x97, 0xa5, 0xa9, 0xb3,
    0xc7, 0xc2, 0xb9, 0x9f, 0x8e, 0x8b, 0x8c, 0x86, 0x98, 0x88,
    0x8a, 0xa2, 0x97, 0x97, 0x9f, 0x9f, 0xa1, 0xa5, 0xa7, 0xa7,
    0xa5, 0xb2, 0xac, 0xad, 0x9d, 0xbc, 0x9c, 0x9d, 0xa2, 0x9b,
    0xa6, 0xa1, 0x8b, 0x8f, 0xa1, 0x9b, 0x9c, 0x9d, 0x9d, 0x90,
    0x86, 0xa2, 0x98, 0x88, 0x9b, 0x91, 0x9e, 0x92, 0x88, 0x97,
    0x94, 0x8c, 0xa1, 0x8e, 0x87, 0x9b, 0x8c, 0xa0, 0x9e, 0x88,
    0x8e, 0x8c, 0x8c, 0x9c, 0x87, 0x9f, 0x9d, 0x8e, 0x85, 0x8a,
    0x92, 0x8c, 0x91, 0x90, 0x8c, 0x80, 0x8c, 0x93, 0x8f, 0x89,
    0x99, 0x88, 0x83, 0x84, 0x8c, 0x8c, 0x95, 0x8e, 0x89, 0x95,
    0x99, 0x8f, 0x9b, 0x90, 0x90, 0x9c, 0x85, 0x9b, 0x9e, 0x8b,
    0x80, 0x89, 0x94, 0x7c, 0x91, 0x76, 0x87, 0x7c, 0x7a, 0x72,
    0x83, 0x86, 0x80, 0x8e, 0x83, 0x90, 0x8d, 0x96, 0x92, 0x99,
    0x9e, 0x8c, 0x9e, 0x97, 0x8b, 0x91, 0x91, 0x8c, 0x8f, 0x88,
    0x77, 0x82, 0x7b, 0x92, 0x83, 0x72, 0x86, 0x8c, 0x9f, 0x7b,
    0x82, 0x9a, 0x92, 0x8f, 0x91, 0x9d, 0x9f, 0x9a, 0xa0, 0x95,
    0x87, 0x9d, 0x9e, 0x94, 0x8c, 0x75, 0x87, 0x7b, 0x8e, 0x96,
    0x94, 0x89, 0x86, 0x8a, 0x7d, 0xa9, 0x8d, 0x9f, 0x9a, 0xa9,
    0xaa, 0xab, 0xae, 0x9a, 0x93, 0x88, 0x8c, 0x8e, 0x8a, 0x97,
    0x8a, 0x8d, 0x95, 0x8d, 0x7a, 0x85, 0x74, 0x83, 0x8b, 0x90,
    0x82, 0x9b, 0x93, 0x87, 0x69, 0x69, 0x81, 0x82, 0xa2, 0x92,
    0x97, 0x9f, 0x94, 0x8b, 0x8f, 0x9b, 0x8e, 0xa7, 0xb1, 0xaa,
    0x8d, 0x8c, 0x8a, 0x97, 0x88, 0xa4, 0x92, 0x8c, 0xa0, 0x92,
    0x9d, 0xa9, 0x94, 0x79, 0x8a, 0x92, 0x87, 0x7d, 0x99, 0x92,
    0xa0, 0x81, 0x95, 0x9f, 0xbb, 0xb4, 0x9d, 0x8d, 0xa4, 0x92,
    0x8b, 0x96, 0x8a, 0x8f, 0x91, 0x87, 0x9f, 0x8d, 0x9a, 0xa0,
    0x96, 0x8c, 0x97, 0x8b, 0x9d, 0x92, 0xa5, 0xaa, 0x94, 0x99,
    0x94, 0x9e, 0xb7, 0xae, 0xa2, 0x9e, 0xa4, 0xa7, 0x92, 0x8d,
    0x8e, 0x95, 0xa0, 0x88, 0x9c, 0x9f, 0x84, 0x87, 0x93, 0x8f,
    0x8b, 0x89, 0x9f, 0x92, 0xa5, 0x94, 0x92, 0x93, 0x95, 0xbb,
    0xa9, 0xa7, 0x9e, 0xa3, 0x9e, 0x92, 0x88, 0x98, 0x98, 0x99,
    0x93, 0x96, 0x98, 0xa6, 0x96, 0x93, 0x89, 0x92, 0x7a, 0x92,
    0x90, 0x8a, 0x8d, 0x8f, 0x8b, 0x7e, 0x8c, 0xaf, 0xbf, 0x8b,
    0xa4, 0xa1, 0x94, 0x8b, 0x8f, 0x9a, 0x97, 0x8f, 0x9a, 0x9c,
    0xa2, 0x9e, 0xa1, 0x8c, 0x94, 0x94, 0x94, 0xa4, 0xb2, 0x89,
    0x85, 0x93, 0x78, 0x93, 0xa2, 0xb0, 0xb7, 0xb1, 0xa9, 0xaa,
    0x9b, 0xa7, 0xa6, 0x9e, 0xaa, 0x9b, 0x9a, 0x9f, 0xa6, 0xaa,
    0x90, 0x97, 0x8f, 0xa0, 0x98, 0xad, 0xa1, 0x9e, 0x6b, 0x76,
    0x82, 0x97, 0xa5, 0xb6, 0xca, 0xb7, 0xa4, 0xa9, 0x94, 0xb0,
    0x99, 0x95, 0x8e, 0x9d, 0x92, 0x82, 0x98, 0xaf, 0x98, 0xa0,
    0x9d, 0x88, 0x9e, 0xa4, 0xa8, 0x8f, 0x7f, 0x74, 0x8a, 0x9d,
    0x95, 0xa7, 0xc2, 0xa7, 0xac, 0x99, 0x9d, 0xaa, 0xa0, 0x8f,
    0x95, 0x90, 0x7e, 0x88, 0xa2, 0xac, 0x9c, 0xaa, 0x8e, 0x96,
    0xb4, 0xab, 0xb0, 0x84, 0x88, 0x91, 0x8a, 0x9e, 0x92, 0xa6,
    0xb7, 0xb3, 0xb3, 0xae, 0x94, 0x8c, 0xa3, 0x94, 0xa0, 0x86,
    0x98, 0x95, 0xa4, 0xa3, 0x9a, 0xac, 0x9a, 0xb5, 0xa1, 0x9f,
    0xaf, 0x91, 0x98, 0x95, 0x81, 0x9d, 0x92, 0xa2, 0xa1, 0xc0,
    0xa4, 0x96, 0x94, 0x86, 0x86, 0x9c, 0x9a, 0x8e, 0x87, 0x92,
    0xa7, 0x92, 0xa6, 0xb0, 0xa2, 0x9a, 0xaa, 0xa6, 0xa3, 0xb7,
    0x91, 0x93, 0x93, 0x9f, 0xa6, 0x9c, 0x95, 0x9c, 0xb7, 0x98,
    0x9c, 0xa5, 0xa7, 0x9a, 0x96, 0x89, 0x95, 0x8e, 0xa3, 0x96,
    0xa6, 0x98, 0x97, 0x92, 0x99, 0xa3, 0xa0, 0x8e, 0x86, 0x82,
    0x8d, 0xa6, 0x9c, 0x93, 0x94, 0xb3, 0xa7, 0x95, 0x97, 0xa0,
    0x99, 0x81, 0x78, 0x79, 0x6d, 0x86, 0xa2, 0x99, 0x99, 0x84,
    0x8f, 0x79, 0x82, 0x96, 0x93, 0x8f, 0x6f, 0x83, 0x8f, 0x92,
    0xa3, 0xa3, 0xa3, 0x93, 0xab, 0x90, 0x91, 0x83, 0x69, 0x5f,
    0x65, 0x6d, 0x79, 0x89, 0x9d, 0x8a, 0x7c, 0x7b, 0x78, 0x7e,
    0x6f, 0x8a, 0x66, 0x75, 0x71, 0x90, 0x8e, 0xa7, 0x8d, 0x92,
    0xae, 0x8f, 0x91, 0x81, 0x7e, 0x58, 0x66, 0x68, 0x7a, 0x87,
    0x7b, 0x9b, 0xa4, 0x97, 0x8d, 0x7c, 0x82, 0x8a, 0x64, 0x74,
    0x61, 0x6a, 0x94, 0x9a, 0x9d, 0xa0, 0xa1, 0x97, 0x98, 0x84,
    0x8d, 0x70, 0x64, 0x50, 0x77, 0x7a, 0x7f, 0x99, 0x99, 0x9b,
    0x9b, 0x9b, 0x8b, 0x8e, 0x82, 0x7a, 0x6f, 0x88, 0x82, 0x7d,
    0x99, 0xa8, 0x99, 0x90, 0x86, 0x91, 0x8f, 0x82, 0x84, 0x69,
    0x4a, 0x6c, 0x89, 0x9f, 0xa4, 0x96, 0x91, 0x84, 0x86, 0x98,
    0xa1, 0x99, 0x8a, 0x8e, 0x7a, 0x99, 0x7f, 0x86, 0x92, 0xaf,
    0x93, 0x95, 0x96, 0x88, 0x98, 0x7b, 0x78, 0x64, 0x73, 0x72,
    0x8c, 0xa8, 0xac, 0x8b, 0x96, 0x8f, 0x96, 0x90, 0x9b, 0x90,
    0x9c, 0x9b, 0x95, 0x8d, 0x7d, 0x79, 0x93, 0x9e, 0x81, 0x96,
    0x90, 0x9d, 0x9b, 0x79, 0x6f, 0x6b, 0x81, 0x81, 0x90, 0x9b,
    0x99, 0x7d, 0x97, 0x9d, 0xa0, 0x98, 0xa1, 0xa1, 0x9c, 0x86,
    0x80, 0x79, 0x8c, 0x77, 0x94, 0x93, 0x86, 0x85, 0x95, 0x92,
    0x8e, 0x87, 0x7f, 0x92, 0x9d, 0xa3, 0x8f, 0x87, 0x8e, 0x99,
    0x88, 0x85, 0x86, 0x99, 0x84, 0x89, 0x8b, 0x97, 0x92, 0x83,
    0x93, 0x91, 0x8b, 0x94, 0x99, 0x97, 0x86, 0x8f, 0x85, 0x9f,
    0x9b, 0xb4, 0x9a, 0x95, 0xb1, 0x9b, 0x9b, 0x9c, 0x88, 0x82,
    0x8c, 0x8f, 0x95, 0x9b, 0xa9, 0xa8, 0xad, 0xaf, 0xa8, 0x9f,
    0xaf, 0xa3, 0x8c, 0x8e, 0x8c, 0x95, 0x96, 0x9d, 0xa2, 0xa1,
    0xac, 0x9f, 0xae, 0xb8, 0xaa, 0xab, 0xa1, 0xb5, 0xb0, 0xab,
    0xb3, 0xa0, 0xc2, 0xbc, 0xa7, 0xac, 0xac, 0x96, 0x96, 0x99,
    0x94, 0x9f, 0x9d, 0x9b, 0x91, 0x95, 0x9a, 0x91, 0xae, 0xb9,
    0xbd, 0xbd, 0xb3, 0xc6, 0xb6, 0xc4, 0xbc, 0xce, 0xc0, 0xc4,
    0xcb, 0xb1, 0xad, 0xac, 0x98, 0x9f, 0x98, 0x9f, 0x97, 0x90,
    0x99, 0x90, 0x9b, 0x9d, 0xa1, 0x87, 0xa1, 0x86, 0x96, 0x8d,
    0x96, 0x9b, 0x9b, 0x8d, 0x9e, 0x91, 0xa2, 0x93, 0x90, 0x88,
    0x92, 0x9a, 0x8e, 0x87, 0x92, 0x8f, 0x9e, 0x9a, 0x90, 0x91,
    0x9d, 0x92, 0x8c, 0x90, 0x9c, 0x91, 0x89, 0x9c, 0x93, 0x9f,
    0x97, 0xb0, 0xab, 0xba, 0xb0, 0xad, 0xa0, 0xa7, 0xaf, 0xa3,
    0x8c, 0x87, 0x87, 0x8f, 0x9c, 0x8f, 0x99, 0x95, 0x9e, 0x87,
    0x90, 0x91, 0x8d, 0x97, 0x98, 0xa9, 0xab, 0xb3, 0xb0, 0xb0,
    0xb6, 0xb9, 0xb7, 0xc4, 0xc7, 0xbf, 0xaa, 0xcb, 0xbc, 0xbb,
    0xad, 0x91, 0x94, 0x85, 0xa0, 0x99, 0x92, 0x91, 0x93, 0x97,
    0xa4, 0xb7, 0x9b, 0xb0, 0xc0, 0xa2, 0xa0, 0x91, 0xa8, 0xa7,
    0xa3, 0xb4, 0xb4, 0xae, 0xa6, 0xa6, 0xbc, 0xa5, 0xa4, 0xa4,
    0x9f, 0x90, 0x88, 0x9f, 0xa4, 0xa7, 0x92, 0x85, 0x9d, 0xb1,
    0x9a, 0xa3, 0xa0, 0x9e, 0x91, 0x8b, 0x95, 0x97, 0x99, 0xa1,
    0x9e, 0x9f, 0x8d, 0xa3, 0x9b, 0x99, 0x7c, 0x7a, 0x7a, 0x8f,
    0x91, 0x9f, 0x93, 0xa1, 0xa2, 0x8e, 0x8a, 0xaf, 0xa5, 0x85,
    0x92, 0x9e, 0x94, 0x94, 0x95, 0x99, 0x9f, 0xa4, 0x9f, 0xa8,
    0x90, 0xa9, 0xb2, 0xa7, 0x8c, 0x75, 0x81, 0x92, 0x8b, 0x88,
    0xa5, 0x90, 0x9c, 0x94, 0x9b, 0x8e, 0x88, 0x82, 0x86, 0x9f,
    0x92, 0x8d, 0x9c, 0x94, 0xa7, 0x9f, 0xa8, 0xa6, 0x92, 0x9f,
    0x99, 0x99, 0x92, 0x68, 0x6d, 0x87, 0x8e, 0x9e, 0x93, 0x95,
    0xaa, 0x95, 0xa2, 0x81, 0x8b, 0x90, 0x9c, 0x99, 0xa3, 0x9e,
    0x93, 0x90, 0x9f, 0xa6, 0xa7, 0xa5, 0x8c, 0x8f, 0x8d, 0x96,
    0x90, 0x73, 0x76, 0x7b, 0x99, 0x9e, 0x91, 0x98, 0xae, 0x91,
    0x85, 0x87, 0x8a, 0x92, 0x91, 0x8b, 0x8c, 0x92, 0xa8, 0x91,
    0xa1, 0xab, 0x8d, 0xa1, 0x7f, 0x90, 0x7e, 0x9a, 0x8f, 0x67,
    0x64, 0x8c, 0x90, 0x9f, 0x8b, 0xa3, 0xb2, 0xa1, 0x88, 0x95,
    0x7c, 0x8c, 0x7e, 0x86, 0x97, 0x9a, 0x8c, 0x82, 0x80, 0x8d,
    0x9c, 0xa4, 0x97, 0x90, 0x7f, 0x98, 0x92, 0x85, 0x86, 0x96,
    0x89, 0xa0, 0x8e, 0x9f, 0x90, 0x9b, 0x8f, 0x97, 0x85, 0x93,
    0x8b, 0x8e, 0x8b, 0x97, 0x86, 0x73, 0x6d, 0x7d, 0x99, 0x86,
    0x87, 0x9b, 0x90, 0x91, 0xa3, 0x7a, 0x7e, 0x8b, 0x9a, 0x91,
    0x94, 0x8a, 0x9f, 0xa0, 0x85, 0x99, 0x9b, 0x8e, 0x78, 0x87,
    0x8e, 0x88, 0x7b, 0x5c, 0x51, 0x70, 0x94, 0x8e, 0x7f, 0x8a,
    0x93, 0x9e, 0xc2, 0x9a, 0x84, 0x89, 0x95, 0x9d, 0x92, 0x85,
    0xa8, 0x8c, 0x88, 0x8d, 0x95, 0xa7, 0x9b, 0x89, 0x91, 0x96,
    0x66, 0x5e, 0x73, 0x74, 0x7c, 0x7a, 0x91, 0x80, 0x77, 0x8a,
    0xac, 0x84, 0x8b, 0x92, 0x87, 0x97, 0xa0, 0x99, 0x96, 0x91,
    0xa2, 0xa4, 0x9b, 0x8b, 0x94, 0x95, 0x9b, 0x92, 0x71, 0x77,
    0x75, 0x75, 0x91, 0x82, 0x8d, 0x80, 0x81, 0x8b, 0xbd, 0x95,
    0x92, 0x8e, 0x99, 0x8a, 0x88, 0x88, 0x89, 0xa8, 0x8f, 0x93,
    0x99, 0x88, 0xa2, 0x97, 0x93, 0x7b, 0x7a, 0x7e, 0x81, 0x7a,
    0x8a, 0x84, 0x7f, 0x8b, 0x96, 0x93, 0x9d, 0x9e, 0xb7, 0x91,
    0x9c, 0x96, 0x8f, 0x8d, 0x90, 0x9e, 0x93, 0x91, 0x96, 0xa1,
    0x93, 0xa5, 0x9f, 0x85, 0x80, 0x79, 0x8c, 0x96, 0x91, 0x91,
    0x87, 0x9f, 0x98, 0x90, 0xbf, 0xba, 0xc5, 0xa4, 0x92, 0x8a,
    0x7b, 0x88, 0x90, 0x9e, 0x8c, 0x9e, 0x9c, 0x8d, 0x92, 0x9e,
    0x94, 0x8e, 0x8a, 0x84, 0x8f, 0x90, 0x83, 0x83, 0x9f, 0x8a,
    0xa0, 0xa1, 0xa4, 0xca, 0xc7, 0xa4, 0x8b, 0x88, 0x89, 0x89,
    0x9b, 0x8d, 0x95, 0x8f, 0x94, 0x99, 0xaf, 0xa3, 0x92, 0x88,
    0x74, 0x87, 0xa0, 0x93, 0x83, 0x96, 0x9c, 0x94, 0x92, 0x94,
    0xa3, 0xd6, 0xb9, 0xa2, 0x8b, 0x9e, 0x73, 0x7c, 0x94, 0x91,
    0x8a, 0x97, 0x9b, 0x9f, 0xab, 0x98, 0x82, 0x72, 0x82, 0x9e,
    0x8d, 0x8f, 0x98, 0x9b, 0x88, 0x9c, 0x98, 0x89, 0x92, 0xcd,
    0xb8, 0xa0, 0x9c, 0x9f, 0x80, 0x73, 0x8f, 0x8b, 0x92, 0x9f,
    0x9b, 0xad, 0x9f, 0x9e, 0x98, 0x85, 0x89, 0xa2, 0x98, 0x8a,
    0x8b, 0x95, 0x94, 0x96, 0x94, 0x81, 0x87, 0xbd, 0xb4, 0x99,
    0xa0, 0x9a, 0x8e, 0x9b, 0x9f, 0xa2, 0xa8, 0xa2, 0x9d, 0xa3,
    0xb4, 0xa7, 0x9a, 0x98, 0x8d, 0x9f, 0x93, 0x91, 0x82, 0x94,
    0x8d, 0xa5, 0x93, 0x7f, 0x9e, 0xc1, 0xaa, 0x89, 0x92, 0x97,
    0x9e, 0xbf, 0x8c, 0xaa, 0x91, 0x8f, 0x9f, 0xac, 0x9e, 0xa1,
    0xaa, 0x93, 0xa0, 0x9b, 0xa1, 0x98, 0x8d, 0x96, 0x93, 0x96,
    0x9d, 0x99, 0xa3, 0xb2, 0xac, 0xa3, 0x93, 0x9a, 0x99, 0xb2,
    0x8c, 0xa0, 0x9a, 0x9d, 0xa6, 0xb5, 0xaf, 0x9f, 0xb2, 0xa8,
    0x8d, 0xa3, 0x9c, 0xa9, 0xa8, 0x88, 0x95, 0xa0, 0xaf, 0xa9,
    0xb6, 0xb1, 0xac, 0x8a, 0x8b, 0x8f, 0x9d, 0xb4, 0x97, 0xa3,
    0xa5, 0xa0, 0x9d, 0x9d, 0xaa, 0xa9, 0xa0, 0x90, 0x92, 0x9a,
    0x96, 0x90, 0xa4, 0x9d, 0xa9, 0xae, 0xaf, 0xa0, 0x99, 0x95,
    0x9e, 0xa1, 0x95, 0x8c, 0x8e, 0x86, 0x91, 0x90, 0x92, 0x90,
    0x9f, 0xaf, 0xa3, 0x94, 0xac, 0xb4, 0x93, 0x98, 0xb0, 0x92,
    0xbc, 0x9e, 0x8d, 0x85, 0xa4, 0xa2, 0x8d, 0x8a, 0x8c, 0x8b,
    0x8a, 0x86, 0x94, 0x90, 0x82, 0x7b, 0x89, 0x8c, 0x80, 0x78,
    0x6d, 0x6a, 0x7d, 0x88, 0x8b, 0x82, 0x84, 0x79, 0x7e, 0x81,
    0x84, 0x81, 0x8f, 0x7d, 0x88, 0x93, 0x93, 0x98, 0x8e, 0x94,
    0xa1, 0x9a, 0x94, 0x84, 0x82, 0x7a, 0x87, 0x92, 0x91, 0x86,
    0x80, 0x8f, 0x78, 0x8f, 0x8c, 0x7f, 0x87, 0x95, 0x96, 0x88,
    0x95, 0x96, 0x99, 0x92, 0x98, 0x92, 0x99, 0x9d, 0x9b, 0x8e,
    0x8f, 0x88, 0x85, 0xa0, 0x9d, 0x9d, 0x87, 0x84, 0xa0, 0x92,
    0x93, 0x97, 0x99, 0x8c, 0x8b, 0x8a, 0x8c, 0x99, 0x9d, 0x8f,
    0xa1, 0xa1, 0x9a, 0x98, 0x8a, 0x9b, 0x9d, 0x87, 0x8e, 0x8b,
    0x9d, 0x9f, 0x91, 0x85, 0x9f, 0x9e, 0x9d, 0xa2, 0x86, 0x90,
    0x86, 0x91, 0x99, 0x9e, 0x9d, 0x9c, 0x92, 0x88, 0x8c, 0x8a,
    0x8f, 0x94, 0x8a, 0x96, 0x9f, 0x9f, 0xa0, 0x9c, 0x9f, 0x9f,
    0x9b, 0x99, 0x8a, 0x86, 0x82, 0x8e, 0x85, 0x97, 0xa6, 0x9f,
    0x9a, 0x97, 0x8f, 0x99, 0x8e, 0x8c, 0x91, 0x9c, 0x9b, 0x8b,
    0x88, 0x98, 0x8d, 0x9b, 0x96, 0x9a, 0x9e, 0x9c, 0x85, 0x9c,
    0x91, 0xa1, 0x90, 0x92, 0x85, 0x8c, 0x9a, 0x85, 0x75, 0x7b,
    0x74, 0x87, 0x80, 0x81, 0x8a, 0x87, 0x8a, 0xa0, 0x97, 0x9f,
    0xa7, 0x90, 0x88, 0x84, 0x91, 0x8d, 0xa7, 0xa3, 0xa1, 0x83,
    0x94, 0x87, 0x7e, 0x8a, 0x87, 0x7b, 0x75, 0x71, 0x78, 0x72,
    0x7a, 0x94, 0x95, 0x85, 0x86, 0x96, 0x9b, 0x9d, 0x96, 0x9f,
    0x8e, 0x96, 0x91, 0x93, 0x9f, 0x8a, 0x96, 0xa7, 0xb7, 0x9b,
    0x92, 0x9d, 0xa9, 0x9a, 0xab, 0x9b, 0x9e, 0x86, 0x97, 0x99,
    0x86, 0x81, 0x8b, 0x8c, 0x87, 0x9d, 0x9c, 0xa6, 0x8e, 0x8f,
    0x93, 0xab, 0xa5, 0x93, 0x9e, 0xa8, 0xae, 0x91, 0x91, 0x95,
    0x9a, 0x89, 0xa1, 0x9d, 0x7a, 0x8d, 0x9b, 0xa5, 0x91, 0x93,
    0x95, 0x88, 0x9e, 0x96, 0x96, 0xa4, 0xb4, 0xb4, 0xa9, 0x9b,
    0xa3, 0x91, 0xa4, 0x93, 0x9a, 0x93, 0x86, 0x88, 0x8f, 0x9b,
    0x85, 0x98, 0x7b, 0x97, 0x9a, 0x78, 0x93, 0x8e, 0x85, 0x8b,
    0x90, 0xa3, 0xbc, 0xaa, 0xab, 0xb6, 0xa3, 0xa9, 0x93, 0xa9,
    0x88, 0x8e, 0x7f, 0x93, 0x7c, 0x77, 0x92, 0x9d, 0x95, 0xa4,
    0x95, 0x8c, 0x99, 0x8b, 0x8a, 0x7e, 0x7a, 0x99, 0x88, 0xa4,
    0xca, 0xc4, 0xc1, 0xa8, 0x9b, 0x8f, 0x9e, 0xa1, 0xa0, 0x95,
    0x9e, 0x90, 0xa7, 0x96, 0x93, 0x9b, 0x9a, 0x90, 0x92, 0x9f,
    0x90, 0x80, 0x79, 0x83, 0x78, 0x85, 0xa4, 0xa2, 0xcf, 0xb8,
    0xa7, 0xb1, 0x9c, 0x9b, 0x9e, 0xa1, 0x95, 0x91, 0x95, 0xa1,
    0x99, 0xad, 0x9b, 0x96, 0x98, 0x84, 0x8c, 0x80, 0x95, 0x92,
    0x85, 0x89, 0x89, 0x8e, 0x8c, 0xaf, 0xd0, 0xa8, 0x94, 0xaa,
    0x8e, 0x97, 0x91, 0x8c, 0x99, 0x86, 0x82, 0x9a, 0xaf, 0xb1,
    0xa7, 0x9d, 0x8c, 0x94, 0x89, 0x8c, 0x8d, 0x90, 0x83, 0xa0,
    0x97, 0x8e, 0xa5, 0x9f, 0xca, 0xbc, 0xa7, 0x8e, 0xa8, 0x9a,
    0xa1, 0xa3, 0x88, 0x89, 0x88, 0x7e, 0xa5, 0xa8, 0x91, 0x89,
    0x94, 0x8e, 0x79, 0x8c, 0x76, 0x6e, 0x88, 0x95, 0x92, 0xa3,
    0x94, 0x8f, 0xb6, 0xb9, 0xa5, 0x9d, 0x84, 0x87, 0x8a, 0x88,
    0x7b, 0x7d, 0x98, 0x90, 0x9c, 0xa9, 0x98, 0x8e, 0x9d, 0x7f,
    0x81, 0x8e, 0x7b, 0x8b, 0x97, 0xb0, 0xa1, 0xa2, 0x89, 0x96,
    0xad, 0xa0, 0x85, 0x7f, 0x7a, 0x79, 0x7a, 0x7f, 0x93, 0x93,
    0x7f, 0x8f, 0x8c, 0x8e, 0x98, 0x88, 0x95, 0x86, 0x8d, 0x93,
    0xa0, 0x93, 0xa7, 0xb6, 0xaf, 0x91, 0x98, 0x9b, 0x8c, 0x9b,
    0x87, 0x74, 0x81, 0x8a, 0x94, 0x88, 0x9f, 0x8e, 0xa6, 0x9d,
    0x9d, 0x8f, 0x9d, 0x93, 0x9a, 0x8d, 0x9b, 0x9b, 0xa3, 0xa2,
    0xa8, 0xa6, 0xaa, 0x9a, 0x98, 0x9a, 0x98, 0x96, 0x89, 0x83,
    0x91, 0x8d, 0x9c, 0x95, 0x94, 0xa3, 0xa5, 0x90, 0x98, 0x9b,
    0x89, 0xa2, 0xa1, 0x9b, 0xab, 0xa5, 0x90, 0xa2, 0x9b, 0x9e,
    0xaf, 0x97, 0x8d, 0x88, 0xa5, 0x8d, 0x87, 0x71, 0x94, 0x91,
    0xa4, 0x93, 0x9d, 0x9c, 0x90, 0x9f, 0x9b, 0x9b, 0xa9, 0xa2,
    0xa6, 0xb5, 0xa5, 0xba, 0xa6, 0xac, 0xae, 0xa9, 0xaf, 0xa0,
    0x8e, 0x95, 0x99, 0x86, 0x85, 0x7d, 0x9c, 0xa3, 0x99, 0xa9,
    0x99, 0x98, 0x8b, 0x9a, 0xaa, 0x9f, 0x90, 0x90, 0xa0, 0xb1,
    0xbe, 0xaf, 0xaf, 0xad, 0xb2, 0xb9, 0xa3, 0x94, 0x9e, 0x8a,
    0x92, 0x96, 0xa1, 0x98, 0x8a, 0xb7, 0x8f, 0x9b, 0x90, 0x8e,
    0x87, 0xa1, 0x8d, 0x79, 0x81, 0x7f, 0x94, 0x95, 0x93, 0x8c,
    0x7f, 0x8a, 0x93, 0xb2, 0xa7, 0x91, 0x91, 0x94, 0x9b, 0x97,
    0x91, 0xa3, 0x9c, 0x92, 0x8b, 0x90, 0x7b, 0x75, 0x8d, 0x96,
    0x94, 0x82, 0x72, 0x71, 0x5d, 0x53, 0x6f, 0x6f, 0x62, 0x8a,
    0x92, 0x93, 0xa2, 0x8c, 0x88, 0x98, 0x9d, 0x8c, 0xa0, 0x93,
    0x94, 0x7e, 0x72, 0x81, 0x89, 0x8d, 0xa8, 0xa6, 0x9a, 0x8a,
    0x74, 0x6a, 0x46, 0x37, 0x4a, 0x71, 0x70, 0x73, 0x88, 0x96,
    0xa7, 0x93, 0x8d, 0x9e, 0x8b, 0x9d, 0x90, 0xa1, 0x8f, 0x61,
    0x6f, 0x7a, 0x98, 0x9c, 0x9d, 0x87, 0x98, 0x91, 0x8e, 0x84,
    0x65, 0x5f, 0x71, 0x5f, 0x78, 0x6f, 0x7d, 0x91, 0x9c, 0x9b,
    0x95, 0x95, 0x8b, 0xa2, 0x9a, 0x7e, 0x6a, 0x6a, 0x7c, 0x8f,
    0xa6, 0x86, 0x90, 0x8c, 0x95, 0x94, 0xa1, 0xa0, 0x78, 0x73,
    0x6a, 0x6c, 0x71, 0x73, 0x7d, 0x93, 0xaa, 0x8e, 0x99, 0x89,
    0x97, 0x85, 0x8f, 0x7d, 0x66, 0x77, 0x76, 0xa4, 0xa0, 0x98,
    0x94, 0xa4, 0x94, 0x99, 0xb0, 0xaa, 0x82, 0x7f, 0x71, 0x6e,
    0x92, 0x93, 0x8f, 0xa0, 0x94, 0xa0, 0x9a, 0x98, 0x8c, 0x8d,
    0x8f, 0x73, 0x77, 0x84, 0x8e, 0x92, 0x94, 0xa0, 0x90, 0x86,
    0x8b, 0x97, 0x94, 0xa5, 0x7e, 0x7a, 0x7a, 0x70, 0x80, 0x80,
    0x8a, 0xa6, 0x94, 0xa1, 0x92, 0x9d, 0x8b, 0x8e, 0x8f, 0x83,
    0x8f, 0x9b, 0x9b, 0x99, 0x8a, 0x9a, 0x84, 0x8e, 0x93, 0x8d,
    0xa2, 0xa2, 0x93, 0x90, 0x82, 0x78, 0x8e, 0x92, 0x91, 0x9a,
    0x9a, 0x9d, 0x88, 0x8f, 0x98, 0x91, 0x9b, 0x9f, 0xa2, 0x8a,
    0xaf, 0xac, 0x92, 0x92, 0x9f, 0x98, 0x9a, 0xab, 0xa2, 0xaf,
    0xaf, 0xa1, 0x9b, 0x92, 0x9d, 0x89, 0x9d, 0x96, 0x9a, 0x8f,
    0x9e, 0x9d, 0x94, 0x8e, 0x9d, 0xaa, 0x9f, 0xb7, 0xb5, 0xbd,
    0xb1, 0xb1, 0xc2, 0xcc, 0xae, 0xc6, 0xd9, 0xcf, 0xc6, 0xa8,
    0x8c, 0x8c, 0x92, 0x8f, 0x9e, 0x9c, 0x89, 0xa2, 0x96, 0x9d,
    0x8a, 0x9f, 0xa0, 0x88, 0x92, 0x8d, 0xa1, 0x8c, 0x8e, 0x8d,
    0x9a, 0x8b, 0x99, 0x95, 0x8c, 0x87, 0x9b, 0x89, 0x9d, 0x8e,
    0xa2, 0x98, 0x8e, 0x97, 0x8f, 0x97, 0x9f, 0x8b, 0xa0, 0x8c,
    0x8a, 0xa2, 0x8b, 0x88, 0x8c, 0x9a, 0x8e, 0xa3, 0x92, 0xa8,
    0xa4, 0xa5, 0x91, 0x95, 0x9a, 0xa4, 0x95, 0x8f, 0x8d, 0x9f,
    0x9b, 0x9e, 0x95, 0x8f, 0x8d, 0x97, 0x96, 0x90, 0x8c, 0x8b,
    0x89, 0x90, 0x8e, 0x96, 0x97, 0x96, 0x9b, 0xa5, 0xa6, 0xb5,
    0xbb, 0xb2, 0xc0, 0xd3, 0xd1, 0xbb, 0xb7, 0x92, 0x93, 0x92,
    0x9a, 0x8e, 0x92, 0x85, 0x92, 0x9b, 0xa4, 0x8c, 0x95, 0x8a,
    0x8b, 0x9d, 0x85, 0x86, 0x82, 0x88, 0x87, 0x7d, 0x97, 0x85,
    0x9d, 0x8f, 0x98, 0xa3, 0xae, 0xab, 0x8e, 0x91, 0x8c, 0x95,
    0x86, 0x9b, 0x8b, 0x94, 0x9e, 0x95, 0x9e, 0x9f, 0x95, 0x85,
    0x89, 0xa2, 0x95, 0x98, 0x8a, 0xa7, 0xa1, 0x9b, 0xaa, 0xa5,
    0x9c, 0xa0, 0xa0, 0xa3, 0xba, 0xa8, 0x9e, 0x9a, 0x8c, 0x9e,
    0xa5, 0xa7, 0x8d, 0x9e, 0xa7, 0x8b, 0x84, 0x96, 0x93, 0x7a,
    0x90, 0x92, 0x95, 0x8a, 0x8b, 0x95, 0x9e, 0x96, 0xac, 0xa1,
    0x8c, 0x8f, 0x97, 0xbe, 0xc0, 0x99, 0x90, 0x98, 0x92, 0xa7,
    0xb3, 0x8d, 0x87, 0x92, 0x85, 0x89, 0x88, 0x98, 0x9c, 0x88,
    0x9d, 0x90, 0x83, 0xa4, 0x96, 0x9e, 0x97, 0x93, 0x8e, 0xa0,
    0x96, 0xbd, 0xb9, 0xab, 0x9d, 0x91, 0x9c, 0x8f, 0xa0, 0x92,
    0x8d, 0x86, 0x6f, 0x85, 0x88, 0x99, 0x8d, 0x8a, 0x95, 0x9e,
    0x94, 0x91, 0x97, 0xac, 0xa9, 0x97, 0xa6, 0xa9, 0x99, 0x9e,
    0xa7, 0x9f, 0x94, 0x87, 0x88, 0x91, 0x98, 0x97, 0x87, 0x70,
    0x74, 0x9c, 0x8c, 0x99, 0x90, 0x91, 0x83, 0x97, 0x88, 0x8c,
    0x8d, 0xa2, 0x8b, 0x9b, 0x96, 0x8a, 0x9d, 0xb1, 0xbc, 0xb2,
    0x92, 0x9c, 0x98, 0x93, 0x92, 0x8d, 0x6e, 0x7d, 0x82, 0x8c,
    0x9d, 0x93, 0x8e, 0xa8, 0x8a, 0x8a, 0x8b, 0x96, 0x8a, 0x8a,
    0x9f, 0x8f, 0x96, 0xa3, 0xb1, 0xbb, 0xd2, 0x9e, 0x90, 0x97,
    0x8c, 0x8d, 0x97, 0x8f, 0x6e, 0x7d, 0x98, 0x95, 0xa5, 0xa5,
    0xad, 0x85, 0x83, 0x85, 0x88, 0x8f, 0x8c, 0x8d, 0x98, 0x96,
    0xb2, 0xc2, 0xbe, 0xd6, 0xba, 0xa1, 0x99, 0xa2, 0x81, 0x8a,
    0x9c, 0x89, 0x82, 0x86, 0x7f, 0x81, 0x93, 0x78, 0x83, 0xa0,
    0xa7, 0xa3, 0x8b, 0x8a, 0x91, 0x8f, 0x99, 0xa6, 0xb7, 0xc3,
    0xcf, 0xd4, 0xc0, 0x9f, 0x87, 0x8e, 0x80, 0x80, 0x99, 0xa4,
    0x89, 0xa7, 0x96, 0x7d, 0x87, 0x94, 0x85, 0x9f, 0xac, 0x93,
    0x8c, 0x9c, 0x98, 0x88, 0x89, 0x9f, 0x95, 0x9f, 0xb6, 0xb1,
    0xb5, 0x94, 0x91, 0x93, 0x90, 0x7b, 0x9a, 0x94, 0xa0, 0x9f,
    0x93, 0x9d, 0x7b, 0x87, 0xa0, 0xb0, 0xaf, 0x9e, 0x8b, 0x91,
    0x90, 0x71, 0x76, 0x60, 0x86, 0x94, 0x8b, 0xa5, 0xa2, 0x9b,
    0x99, 0x8b, 0xa2, 0x7b, 0x80, 0x7d, 0x8c, 0x8b, 0xae, 0x9e,
    0x92, 0x88, 0x9f, 0xa7, 0xb2, 0x91, 0x96, 0x8d, 0x7f, 0x6d,
    0x5d, 0x50, 0x64, 0x6c, 0x70, 0x8b, 0x91, 0x8a, 0x8e, 0x96,
    0x91, 0x96, 0x83, 0x84, 0x91, 0x93, 0x90, 0x96, 0x97, 0x86,
    0x97, 0xa7, 0xae, 0x8f, 0x8c, 0x8a, 0x99, 0x76, 0x69, 0x46,
    0x66, 0x5b, 0x7d, 0x92, 0x95, 0x93, 0x92, 0xa0, 0x9d, 0x90,
    0x8a, 0xa0, 0x81, 0x8c, 0x8e, 0xa4, 0x9f, 0xa1, 0x9e, 0x95,
    0xa7, 0xa6, 0x91, 0x78, 0x8b, 0x9a, 0x6d, 0x51, 0x53, 0x6f,
    0x8c, 0x8c, 0x8c, 0x88, 0x8b, 0xa0, 0xa7, 0xa0, 0x8b, 0x8e,
    0x82, 0x75, 0x71, 0x78, 0x98, 0x8d, 0x89, 0x8f, 0x9e, 0xa3,
    0x9a, 0x9a, 0xaa, 0x9d, 0x8a, 0x4d, 0x57, 0x7e, 0x7b, 0x96,
    0xa2, 0xa1, 0x8d, 0xa1, 0xa3, 0x98, 0x92, 0x9a, 0x90, 0x8f,
    0x76, 0x79, 0x7e, 0x91, 0x87, 0x8c, 0x9c, 0x9a, 0x9e, 0xac,
    0xad, 0x91, 0x87, 0x6d, 0x60, 0x6d, 0x9a, 0x83, 0x9e, 0x90,
    0x95, 0x87, 0xb5, 0x9b, 0x9c, 0x94, 0x8f, 0x9e, 0x81, 0x82,
    0x90, 0x8d, 0x7b, 0x81, 0x94, 0xa4, 0xa6, 0x9c, 0xb4, 0x99,
    0x80, 0x5b, 0x57, 0x83, 0x85, 0x9c, 0x96, 0xa4, 0x86, 0x93,
    0xb3, 0xa1, 0x94, 0x92, 0xa3, 0x8c, 0x8d, 0x84, 0xa2, 0x93,
    0x8b, 0x91, 0x98, 0x9f, 0x9a, 0xb1, 0xab, 0x99, 0x76, 0x4c,
    0x74, 0x87, 0x8a, 0x9d, 0xa2, 0xa3, 0x9f, 0x96, 0xae, 0x9e,
    0x97, 0x97, 0xa9, 0x98, 0x9b, 0x99, 0x91, 0x94, 0x89, 0x98,
    0x81, 0x8e, 0x92, 0x9a, 0x9b, 0x7a, 0x6f, 0x63, 0x6a, 0x87,
    0x85, 0x8e, 0x9a, 0x94, 0x88, 0x96, 0x9c, 0x83, 0x9b, 0x97,
    0x9d, 0x92, 0x98, 0xa6, 0xa1, 0xa7, 0x92, 0xa1, 0x9b, 0x99,
    0x96, 0x99, 0x8f, 0x84, 0x74, 0x6b, 0x7b, 0x7d, 0x93, 0xa0,
    0x91, 0x9c, 0x86, 0x99, 0x9d, 0x9d, 0x81, 0x91, 0x9d, 0x8e,
    0x94, 0x8a, 0x97, 0x9b, 0xa7, 0x93, 0x9f, 0x9e, 0x8c, 0x8c,
    0x89, 0x6b, 0x86, 0x80, 0x94, 0x8c, 0x88, 0xa0, 0x90, 0x90,
    0x91, 0x9b, 0x8d, 0xb6, 0x8e, 0xa0, 0x94, 0x8f, 0x99, 0xa9,
    0x9f, 0x9e, 0xb1, 0x95, 0x7e, 0x95, 0x8b, 0x8d, 0x99, 0x90,
    0xa2, 0xa1, 0xa4, 0x9f, 0x99, 0x86, 0x9b, 0x88, 0x8e, 0x8d,
    0xa1, 0x86, 0x86, 0x9b, 0x85, 0x98, 0x9e, 0xa1, 0x92, 0x9a,
    0x97, 0x8f, 0x97, 0x99, 0x99, 0xad, 0xb4, 0xb9, 0xb0, 0xb0,
    0xaa, 0x9a, 0x95, 0xa1, 0x8b, 0x94, 0x98, 0xa0, 0x9b, 0x9f,
    0xa6, 0x9f, 0xad, 0xa9, 0xa0, 0x9b, 0x9f, 0x9b, 0xa3, 0xaf,
    0xb6, 0xb2, 0xc5, 0xc1, 0xbb, 0xd1, 0xb1, 0xad, 0x9b, 0x91,
    0x98, 0x92, 0x97, 0x9f, 0x93, 0x91, 0x99, 0x87, 0x9f, 0x8b,
    0x90, 0x87, 0x8f, 0x8d, 0x99, 0x98, 0xa1, 0x9a, 0xb5, 0xaa,
    0x9a, 0x9c, 0xa2, 0xa2, 0x96, 0x9e, 0x88, 0x95, 0x9f, 0x9a,
    0x8e, 0x99, 0x97, 0x9e, 0x8b, 0x8b, 0x8a, 0x9f, 0x8b, 0x9e,
    0x85, 0x8f, 0x97, 0x90, 0x8d, 0x8c, 0x96, 0x95, 0x9f, 0x9a,
    0x99, 0x9e, 0x8d, 0x8c, 0x8b, 0x89, 0x94, 0x87, 0x93, 0x9d,
    0x8b, 0x93, 0x96, 0x9e, 0x95, 0x8e, 0x81, 0x81, 0x81, 0x87,
    0x85, 0x88, 0x7d, 0x8e, 0x94, 0x90, 0xa7, 0x8e, 0x8a, 0x92,
    0x8f, 0x89, 0x83, 0x8f, 0x9e, 0x94, 0x8c, 0x96, 0x8b, 0x9c,
    0x8a, 0x86, 0x9a, 0x95, 0x8f, 0x7a, 0x6f, 0x78, 0x6d, 0x6d,
    0x78, 0x90, 0x97, 0xad, 0xa6, 0xa0, 0xa2, 0x7b, 0x7b, 0x79,
    0x81, 0x7e, 0x9b, 0x9d, 0x8c, 0x94, 0x9f, 0xa0, 0x9b, 0x7e,
    0x7e, 0x84, 0x7b, 0x7b, 0x6d, 0x67, 0x76, 0x8d, 0x7c, 0x85,
    0x99, 0x9b, 0xa2, 0xb2, 0x9f, 0x95, 0x9c, 0x90, 0x90, 0x8c,
    0x86, 0x97, 0xa0, 0x8c, 0x9e, 0x9c, 0x93, 0x9c, 0x94, 0x95,
    0x79, 0x8a, 0x93, 0x8f, 0x9d, 0xa8, 0x9a, 0x9d, 0x8f, 0xb2,
    0xae, 0xad, 0xa6, 0x97, 0x9a, 0x88, 0x97, 0x97, 0xa9, 0xa1,
    0x8b, 0x9b, 0x9f, 0x8c, 0x95, 0xa3, 0x9a, 0x93, 0x89, 0x88,
    0x90, 0x90, 0x8b, 0x9b, 0x92, 0x8e, 0x8b, 0x92, 0xa8, 0xa7,
    0xb5, 0xa3, 0x8d, 0xa5, 0x90, 0x95, 0xa6, 0x86, 0x99, 0x7e,
    0x86, 0xa1, 0x9e, 0xa0, 0x82, 0x8e, 0x90, 0x8e, 0x91, 0x8b,
    0x8c, 0x80, 0x79, 0x8e, 0x82, 0x91, 0xac, 0xab, 0xa4, 0x9b,
    0x9b, 0xa2, 0x96, 0x98, 0x98, 0x98, 0xa1, 0x94, 0x9f, 0x93,
    0x87, 0xa3, 0x91, 0x8d, 0x7f, 0x81, 0x7a, 0x86, 0x86, 0x8d,
    0x8d, 0x97, 0x8d, 0x84, 0x95, 0xb8, 0xbe, 0xb0, 0xa2, 0x9b,
    0xa3, 0x9c, 0x92, 0x9b, 0xa3, 0x8b, 0x90, 0x8f, 0x97, 0x9f,
    0x87, 0x7b, 0x7d, 0x81, 0x94, 0x90, 0xa3, 0x8e, 0x85, 0x80,
    0x8b, 0x77, 0x99, 0xa8, 0xbc, 0xa4, 0xa5, 0x98, 0x95, 0x9e,
    0x92, 0x98, 0x9a, 0x93, 0x8d, 0x99, 0x9c, 0x95, 0x7c, 0x7c,
    0x86, 0x94, 0x8d, 0x9b, 0x92, 0x87, 0x8c, 0x96, 0x7c, 0x6c,
    0x95, 0xba, 0xb1, 0xb1, 0xa9, 0x9c, 0x8d, 0x9b, 0x90, 0x8f,
    0x82, 0x9f, 0x9d, 0x9c, 0x81, 0x84, 0x7b, 0x78, 0x81, 0x90,
    0x96, 0x8e, 0x8b, 0x90, 0x90, 0x7c, 0x62, 0x77, 0xa4, 0xa1,
    0xaa, 0x9e, 0xb5, 0x94, 0xa3, 0x8d, 0x78, 0x8b, 0x74, 0xa2,
    0x88, 0x81, 0x80, 0x8e, 0x94, 0x88, 0x9b, 0x7e, 0x95, 0x91,
    0x8d, 0x7d, 0x7a, 0x7a, 0x84, 0x95, 0x90, 0xa7, 0x99, 0xa3,
    0xb0, 0x9d, 0x96, 0x8e, 0x7f, 0x8e, 0x85, 0x91, 0x9b, 0x89,
    0x80, 0x85, 0x8c, 0xa1, 0xad, 0x8f, 0x95, 0x83, 0x90, 0x95,
    0x97, 0x85, 0x82, 0x89, 0x82, 0x9a, 0x8f, 0xac, 0xa0, 0xa8,
    0xa0, 0x8c, 0x8d, 0x93, 0xa8, 0x86, 0x93, 0x8c, 0x82, 0x8a,
    0xb3, 0x9e, 0xa6, 0xa0, 0x9f, 0x9d, 0x9a, 0x8e, 0x9b, 0x8c,
    0x92, 0x81, 0x83, 0x99, 0xab, 0x95, 0xac, 0xa8, 0x99, 0x8d,
    0x7f, 0xa0, 0x95, 0x98, 0x89, 0x8a, 0x74, 0x88, 0xb7, 0xa1,
    0xa3, 0x97, 0x97, 0xa1, 0x89, 0x96, 0xa1, 0x95, 0x87, 0x84,
    0x96, 0x93, 0x9b, 0xa1, 0xa5, 0x93, 0x9a, 0x83, 0x9c, 0x98,
    0x97, 0x89, 0x8b, 0x9b, 0x90, 0xa5, 0xb5, 0x9e, 0x97, 0x95,
    0x8a, 0xa1, 0x8f, 0x9b, 0xa6, 0x8b, 0x99, 0x8b, 0x98, 0x9b,
    0xa0, 0x9c, 0x89, 0x85, 0x9c, 0x85, 0x83, 0xa5, 0xaf, 0xa2,
    0x8c, 0xa8, 0xaa, 0x8d, 0xb1, 0x9b, 0x8e, 0x95, 0x90, 0x82,
    0x82, 0x86, 0x97, 0x98, 0x83, 0x93, 0x96, 0xa5, 0xae, 0x8d,
    0x97, 0x96, 0x9a, 0x8e, 0x9f, 0x9a, 0xa4, 0x92, 0x8a, 0xa9,
    0xab, 0x9a, 0x97, 0x9c, 0x93, 0x84, 0x88, 0x86, 0x8b, 0x9d,
    0x98, 0x9b, 0x83, 0x95, 0xac, 0xaa, 0x93, 0x9c, 0x89, 0x95,
    0x85, 0x9c, 0x90, 0x95, 0xa2, 0x9f, 0x9c, 0x91, 0xbc, 0x97,
    0x83, 0x92, 0x88, 0x7e, 0x86, 0x92, 0x8e, 0x9c, 0x95, 0x85,
    0x92, 0x92, 0x9b, 0x92, 0x90, 0x87, 0x81, 0x91, 0x8a, 0x93,
    0x94, 0x95, 0x9c, 0x9b, 0x9e, 0xa0, 0xa4, 0xa6, 0x94, 0x9f,
    0x95, 0x97, 0x81, 0x93, 0x91, 0x8a, 0x82, 0x81, 0x83, 0x8e,
    0x9b, 0x89, 0x9b, 0xa0, 0x7d, 0x8f, 0x92, 0x9f, 0xa2, 0xa4,
    0xa3, 0x8e, 0x91, 0x9a, 0xb6, 0xa6, 0x9a, 0xa1, 0x93, 0x9d,
    0x87, 0x82, 0x87, 0x83, 0x8f, 0x8c, 0x83, 0x97, 0xa5, 0xac,
    0xa2, 0x85, 0x95, 0x82, 0x93, 0xa1, 0x97, 0xa0, 0xa7, 0x98,
    0x8e, 0x8f, 0x95, 0xaf, 0xa5, 0x97, 0x92, 0x91, 0x90, 0x8f,
    0x93, 0x8b, 0x8d, 0x89, 0x82, 0x8a, 0x9c, 0xa0, 0x8b, 0x8d,
    0x86, 0x94, 0xa3, 0xa3, 0x97, 0xa4, 0x98, 0x95, 0xa1, 0x94,
    0xac, 0x91, 0x89, 0xa1, 0xa4, 0x92, 0x9b, 0x81, 0x88, 0x9e,
    0x82, 0x95, 0x89, 0x90, 0x90, 0x82, 0x86, 0x80, 0x8e, 0x9c,
    0x9a, 0x9c, 0x92, 0xab, 0xa4, 0xa0, 0x96, 0x8f, 0x95, 0x95,
    0x78, 0x8f, 0x92, 0xa3, 0xa5, 0xa4, 0x96, 0x99, 0x83, 0x8a,
    0x8f, 0x95, 0x92, 0xa6, 0x9d, 0x83, 0x9f, 0xb1, 0xb2, 0xa9,
    0xac, 0x9f, 0x98, 0x9c, 0x88, 0x94, 0xa4, 0x9a, 0x89, 0x87,
    0x85, 0x8b, 0x8a, 0x82, 0x9a, 0x7b, 0x85, 0x7e, 0x84, 0x8e,
    0x8c, 0x93, 0xa2, 0x93, 0x9c, 0xb0, 0xa1, 0xae, 0x96, 0x91,
    0x9c, 0x8d, 0x8e, 0xa1, 0xa1, 0x9c, 0x83, 0x95, 0x8a, 0x7d,
    0x8a, 0x8d, 0x82, 0x7f, 0x6e, 0x8c, 0x87, 0x86, 0x93, 0x98,
    0x98, 0xa8, 0xac, 0xa4, 0xa2, 0xa1, 0xa3, 0x8b, 0x9d, 0x91,
    0x8f, 0x86, 0x9b, 0x9d, 0xac, 0x92, 0x8f, 0x90, 0x81, 0x8b,
    0x74, 0x89, 0x86, 0x79, 0x6f, 0x85, 0x79, 0x86, 0x8a, 0x81,
    0x97, 0x92, 0x94, 0x8f, 0x98, 0x8f, 0x8a, 0x9b, 0x95, 0x90,
    0xa1, 0x8d, 0x8a, 0x91, 0x90, 0x85, 0x7a, 0x7e, 0x7d, 0x86,
    0x87, 0x77, 0x78, 0x88, 0x6f, 0x7b, 0x80, 0x7c, 0x9b, 0x92,
    0x8c, 0x99, 0x8f, 0x92, 0x9f, 0x8a, 0x9b, 0x9e, 0x8b, 0xa1,
    0x9d, 0x8f, 0x94, 0x92, 0x9d, 0x9a, 0x8f, 0x8b, 0x86, 0x92,
    0x8c, 0x8d, 0x8d, 0x87, 0x99, 0x93, 0x85, 0x8a, 0x8d, 0x9b,
    0x99, 0x9d, 0x91, 0x96, 0x9c, 0xa0, 0xa0, 0x9f, 0x9b, 0x8a,
    0x8f, 0x84, 0x8e, 0x84, 0x7f, 0x89, 0x8b, 0x98, 0x84, 0x95,
    0x9a, 0x9c, 0x83, 0x8b, 0x91, 0x8e, 0x86, 0x81, 0x9a, 0x87,
    0x8c, 0x86, 0x8c, 0x8f, 0x86, 0xa1, 0x8c, 0x95, 0x82, 0x7d,
    0x83, 0x76, 0x72, 0x74, 0x6b, 0x70, 0x75, 0x6a, 0x66, 0x7d,
    0x82, 0x8d, 0x87, 0x8e, 0x7e, 0x90, 0x84, 0x99, 0x87, 0x93,
    0x9d, 0x87, 0x94, 0x8b, 0x95, 0x83, 0x7f, 0x71, 0x7c, 0x61,
    0x62, 0x65, 0x63, 0x55, 0x6c, 0x7c, 0x7d, 0x73, 0x86, 0x96,
    0x91, 0x84, 0xa3, 0x9c, 0x99, 0x97, 0x88, 0x85, 0x8e, 0x91,
    0xa3, 0x8d, 0x8e, 0xa1, 0x84, 0x80, 0x80, 0x78, 0x83, 0x74,
    0x6c, 0x84, 0x7c, 0x85, 0x9b, 0x9c, 0x97, 0x98, 0x88, 0x80,
    0x93, 0xa5, 0x9f, 0xab, 0xa2, 0x96, 0x8d, 0x99, 0x89, 0x93,
    0xa8, 0x9d, 0x8e, 0x90, 0x94, 0x76, 0x91, 0x8d, 0x9d, 0x8d,
    0x9c, 0x91, 0x8b, 0x91, 0x86, 0x8d, 0x93, 0x80, 0xa1, 0x97,
    0x99, 0xb6, 0xb9, 0x99, 0x9d, 0x9a, 0x90, 0x8a, 0x9a, 0x91,
    0x88, 0x92, 0x7d, 0x90, 0xa4, 0xab, 0x9a, 0xa2, 0xb2, 0x94,
    0x9e, 0x9f, 0x98, 0xa1, 0xa5, 0x9c, 0x9e, 0x90, 0x9a, 0xb5,
    0xa4, 0x9e, 0x93, 0x9e, 0x86, 0x9a, 0x92, 0x8b, 0x90, 0x93,
    0x8a, 0x92, 0xa6, 0x8b, 0x9d, 0x95, 0x98, 0x8a, 0x8c, 0x8a,
    0xa2, 0xa2, 0x95, 0xa3, 0x9b, 0x9c, 0x9c, 0x95, 0xa5, 0x96,
    0x99, 0x90, 0x90, 0xa3, 0x89, 0x9a, 0x89, 0x96, 0x91, 0x91,
    0x80, 0x82, 0x90, 0x95, 0x81, 0x9d, 0xa6, 0x87, 0xa0, 0x92,
    0x9c, 0xa2, 0x9a, 0x8a, 0xb0, 0xa4, 0xaa, 0xa4, 0x9f, 0x94,
    0x99, 0x97, 0x95, 0x9b, 0x9f, 0x8c, 0x8d, 0x8f, 0x94, 0x8d,
    0x7e, 0x9c, 0xa4, 0xa0, 0x98, 0xa7, 0x85, 0x82, 0x93, 0x8e,
    0x88, 0xa3, 0xa2, 0xa4, 0xac, 0x9e, 0x8f, 0x99, 0x97, 0x9a,
    0xa3, 0x92, 0x9c, 0x8f, 0x91, 0xa0, 0x86, 0x87, 0x8d, 0x83,
    0x7a, 0x7b, 0x8b, 0x84, 0x94, 0x94, 0x82, 0x82, 0x98, 0x9e,
    0x9c, 0xab, 0x94, 0xa3, 0x84, 0x94, 0x81, 0x92, 0x97, 0x9a,
    0xa6, 0x9e, 0x9d, 0x93, 0x9b, 0x85, 0x76, 0x73, 0x8a, 0x87,
    0x83, 0x95, 0x90, 0x93, 0x9f, 0x9f, 0xaf, 0xa6, 0xb0, 0x9b,
    0xa2, 0xa0, 0x96, 0x90, 0x84, 0x93, 0xaa, 0x9b, 0x99, 0xa2,
    0x95, 0x8e, 0x94, 0x81, 0x8b, 0x92, 0x94, 0x8e, 0x7f, 0x8b,
    0x90, 0x9c, 0x9f, 0xa8, 0x95, 0xba, 0xa4, 0x8d, 0x8b, 0x8b,
    0x98, 0x99, 0x84, 0x95, 0xa9, 0xa5, 0x9a, 0xa2, 0x91, 0x8e,
    0x94, 0x97, 0x94, 0x9d, 0x9a, 0x9d, 0x93, 0x94, 0xa1, 0x9f,
    0xa0, 0x92, 0x9d, 0x8e, 0x70, 0x8e, 0x81, 0x98, 0x90, 0x8e,
    0x77, 0x7f, 0xa2, 0x91, 0xa9, 0x97, 0xb5, 0xa7, 0xae, 0x9e,
    0x8b, 0x93, 0xa0, 0x98, 0x94, 0x94, 0x9a, 0x92, 0x93, 0x95,
    0x81, 0x86, 0x6b, 0x73, 0x84, 0x97, 0x92, 0x95, 0x81, 0x7c,
    0xa1, 0xa4, 0xa6, 0xa2, 0xb4, 0xa8, 0xb2, 0xa3, 0x9f, 0xac,
    0xa0, 0x91, 0x9c, 0x94, 0x8c, 0x83, 0x80, 0x8f, 0x7c, 0x88,
    0x78, 0x76, 0x88, 0xa1, 0x8d, 0x99, 0x83, 0x77, 0x88, 0x7e,
    0x89, 0x9d, 0x9f, 0xb1, 0xb6, 0xb7, 0xaf, 0xb4, 0x9f, 0x9e,
    0x97, 0x98, 0x91, 0x8e, 0x7d, 0x85, 0x84, 0x7f, 0x92, 0x70,
    0x79, 0x9a, 0x9c, 0x86, 0x90, 0x90, 0x81, 0x7d, 0x71, 0x8e,
    0x8d, 0x8b, 0x9e, 0x9a, 0xb4, 0xa3, 0x9a, 0xa0, 0x8f, 0x94,
    0x9a, 0x91, 0x8f, 0xad, 0x92, 0x7e, 0x8f, 0x74, 0x93, 0x8d,
    0x96, 0x88, 0xac, 0x70, 0x66, 0x6f, 0x65, 0x73, 0x5f, 0x7b,
    0x9c, 0xa4, 0x9e, 0x8a, 0x99, 0x94, 0x88, 0x84, 0x7d, 0x8e,
    0x9b, 0x9d, 0x99, 0x7f, 0x7b, 0x74, 0x8d, 0x82, 0x88, 0xa0,
    0xb0, 0x83, 0x88, 0x73, 0x76, 0x5c, 0x5e, 0x61, 0x66, 0x6a,
    0x77, 0x90, 0x96, 0x92, 0x8d, 0x9a, 0x87, 0xb1, 0x8f, 0x9f,
    0x94, 0x82, 0x76, 0x73, 0x8d, 0x8a, 0x97, 0x8f, 0xa6, 0x8f,
    0x8d, 0xa0, 0x8e, 0x86, 0x7d, 0x7f, 0x71, 0x6e, 0x75, 0x8c,
    0x94, 0x91, 0xa1, 0x92, 0x93, 0x9c, 0x9c, 0x9f, 0x97, 0x96,
    0x7f, 0x73, 0x86, 0x90, 0x9f, 0xa2, 0xab, 0x9a, 0x9e, 0xa1,
    0x9d, 0x99, 0x94, 0xa3, 0x9d, 0x87, 0x8d, 0x84, 0x95, 0xa2,
    0x9b, 0x96, 0x92, 0x90, 0x80, 0x92, 0xa1, 0x96, 0x82, 0x76,
    0x92, 0xa2, 0xa0, 0x98, 0x9f, 0x86, 0x9a, 0xa5, 0xa5, 0xa2,
    0x91, 0x97, 0x9a, 0x99, 0x99, 0x9c, 0x8c, 0x97, 0x91, 0x8a,
    0x93, 0x8c, 0x89, 0x8b, 0x9c, 0xaa, 0x91, 0x7d, 0x85, 0x8a,
    0x9b, 0x98, 0xac, 0x97, 0x9a, 0x93, 0x9c, 0x9b, 0xaa, 0x98,
    0x9f, 0x93, 0x88, 0x98, 0x96, 0x96, 0x82, 0x93, 0x83, 0x89,
    0x96, 0x8a, 0xa7, 0xa7, 0x97, 0x82, 0x8e, 0x8e, 0x8e, 0x98,
    0x91, 0x95, 0xa6, 0xa3, 0xa8, 0xa9, 0x92, 0x99, 0xa4, 0x97,
    0x9c, 0xa2, 0x8c, 0x89, 0x90, 0x8f, 0x8f, 0x98, 0xa8, 0xa1,
    0xaa, 0xaf, 0x8e, 0x8a, 0x8d, 0x8c, 0x8b, 0xa2, 0x93, 0x7e,
    0x85, 0x96, 0xb6, 0x91, 0xad, 0x9f, 0x9c, 0x93, 0x97, 0x93,
    0x95, 0x82, 0x8d, 0xa2, 0xa8, 0xc4, 0xb4, 0xbb, 0xbf, 0xce,
    0xa2, 0xa0, 0x8e, 0x9d, 0xa2, 0x9e, 0x92, 0x9d, 0xae, 0x9d,
    0xa0, 0x9f, 0xba, 0xae, 0xad, 0xa2, 0xb9, 0xac, 0xac, 0xa9,
    0xa3, 0x9f, 0xa0, 0xa4, 0xb4, 0xb4, 0x93, 0xb0, 0x98, 0x8e,
    0x92, 0x87, 0x9d, 0x9b, 0x98, 0x87, 0x95, 0x93, 0x8e, 0x96,
    0x9d, 0x97, 0x9d, 0x9a, 0x8c, 0xa3, 0xa6, 0xa1, 0x83, 0x8a,
    0xa4, 0x95, 0xa0, 0x8a, 0x80, 0x99, 0x92, 0x94, 0x91, 0xa0,
    0x9f, 0x99, 0x8b, 0x9c, 0x93, 0x88, 0x8c, 0x8a, 0x91, 0x88,
    0x8b, 0x9b, 0x94, 0x92, 0x9a, 0x97, 0x99, 0x9b, 0x90, 0x94,
    0x92, 0x9c, 0x8d, 0x89, 0x86, 0xa1, 0x90, 0x90, 0x9f, 0x93,
    0x91, 0x91, 0x8e, 0xa3, 0x99, 0xa8, 0xae, 0xb5, 0xa9, 0xab,
    0xb2, 0xb1, 0xb5, 0xa9, 0xa3, 0xb7, 0xc4, 0xc2, 0xba, 0xae,
    0xa9, 0x9e, 0x86, 0x92, 0x98, 0x92, 0x8a, 0x91, 0x8e, 0xa0,
    0x94, 0x91, 0xaf, 0xcb, 0xb6, 0xc3, 0xbb, 0xc5, 0xc9, 0xcc,
    0xb8, 0xc0, 0xb0, 0xac, 0xaa, 0xc7, 0xd9, 0xd7, 0xcd, 0xc5,
    0xac, 0x9e, 0xa2, 0x88, 0x8f, 0x9f, 0x92, 0x9c, 0xa3, 0xb6,
    0xc2, 0xb4, 0xab, 0xc7, 0xa8, 0xa2, 0xaa, 0x95, 0x97, 0xa5,
    0xa4, 0xb1, 0xb1, 0xbc, 0xa8, 0xb1, 0xbb, 0xa6, 0x9d, 0x94,
    0x88, 0x9e, 0x9c, 0x89, 0x8c, 0x90, 0xa5, 0xb3, 0xc8, 0xa1,
    0xba, 0xbb, 0xa6, 0x90, 0xa4, 0x95, 0x9f, 0x96, 0x76, 0x95,
    0xa1, 0xb7, 0x8b, 0x7e, 0x83, 0x7d, 0x88, 0x7c, 0x92, 0xa2,
    0xa1, 0x8e, 0xad, 0x90, 0xa7, 0xb9, 0xa4, 0xa0, 0x8e, 0x9e,
    0x84, 0x8e, 0x8c, 0x7d, 0x8f, 0xaa, 0x8b, 0x84, 0x94, 0x92,
    0x8b, 0x81, 0x7e, 0x8a, 0x85, 0x80, 0x8b, 0xa1, 0x97, 0x93,
    0xa7, 0xa3, 0xad, 0xac, 0x8e, 0x90, 0x77, 0x9a, 0x96, 0x7f,
    0x80, 0x76, 0x8a, 0x96, 0x8b, 0x87, 0x8a, 0x78, 0x4c, 0x76,
    0x8f, 0x94, 0x9d, 0x9c, 0x88, 0x8f, 0x8e, 0x98, 0xa1, 0x93,
    0x9e, 0x9b, 0x7b, 0x9a, 0x89, 0x85, 0x90, 0x87, 0x92, 0x83,
    0x96, 0x99, 0x90, 0x90, 0x74, 0x57, 0x5d, 0x7e, 0x7e, 0x8a,
    0x97, 0xab, 0x91, 0x94, 0x97, 0x9b, 0x98, 0x95, 0x99, 0x95,
    0x98, 0xa1, 0x80, 0x88, 0x8d, 0x7a, 0x89, 0x84, 0x8c, 0x99,
    0x80, 0x7b, 0x77, 0x61, 0x86, 0x98, 0x86, 0x8c, 0xa3, 0x8a,
    0x76, 0x8c, 0x86, 0x97, 0x88, 0x98, 0x95, 0x9a, 0x77, 0x83,
    0x92, 0x7f, 0x86, 0x7b, 0x7c, 0x93, 0x8c, 0x90, 0x81, 0x79,
    0x75, 0x72, 0x96, 0xaa, 0x91, 0x98, 0x87, 0x78, 0x7b, 0x95,
    0x85, 0x9d, 0x90, 0x8c, 0xa3, 0x95, 0x88, 0x85, 0x95, 0x88,
    0x8d, 0x84, 0x79, 0x9d, 0x91, 0x8b, 0x8e, 0x94, 0x7e, 0x8e,
    0x8f, 0xa9, 0x8d, 0x8c, 0x6b, 0x77, 0x87, 0x9b, 0x9c, 0xaa,
    0x97, 0x9b, 0x96, 0x9a, 0x82, 0x95, 0x8f, 0x94, 0x99, 0x7e,
    0x8d, 0x9d, 0x97, 0x8d, 0x8e, 0x7f, 0x92, 0xa1, 0x9a, 0x9a,
    0x99, 0x97, 0x7e, 0x6b, 0x81, 0x99, 0x9e, 0xa0, 0x98, 0x97,
    0xa2, 0x97, 0x86, 0x8e, 0x9f, 0x92, 0x97, 0xa1, 0x9f, 0x9c,
    0x94, 0x9d, 0xa7, 0x98, 0x99, 0xa1, 0x99, 0xa3, 0xa7, 0x9c,
    0xa7, 0x87, 0xa4, 0x9b, 0x99, 0x94, 0x9f, 0x9b, 0x96, 0xac,
    0xa0, 0x9a, 0xa1, 0x95, 0x9c, 0xa8, 0x99, 0x93, 0x97, 0x9c,
    0x8a, 0x8b, 0xab, 0xb2, 0x99, 0xa9, 0xa6, 0xaf, 0xa9, 0x94,
    0x99, 0x94, 0x92, 0x88, 0x9e, 0xa8, 0x96, 0xa4, 0xa8, 0x8b,
    0xa8, 0xa9, 0x94, 0x92, 0x98, 0x99, 0x9a, 0x9f, 0x9f, 0x91,
    0x92, 0x97, 0xa4, 0xac, 0xab, 0xb8, 0xaa, 0x9e, 0x91, 0x8d,
    0x9f, 0x87, 0x9a, 0xab, 0x93, 0x8c, 0xa7, 0xa1, 0x9a, 0xa2,
    0x83, 0x8b, 0x92, 0x97, 0xb6, 0xa1, 0x92, 0x9b, 0x9d, 0xa3,
    0xa9, 0xa1, 0xab, 0x9d, 0x8f, 0xae, 0x9e, 0x82, 0x97, 0x96,
    0xa3, 0xa6, 0x81, 0x8d, 0xa0, 0xac, 0xa9, 0xa3, 0x8e, 0x8a,
    0x8c, 0xa1, 0xb7, 0xa5, 0xa8, 0x86, 0x8a, 0x88, 0x8e, 0x99,
    0x9e, 0xa6, 0xb0, 0xb3, 0x8f, 0x85, 0x91, 0x8d, 0x9c, 0xa9,
    0x82, 0x83, 0x8b, 0x84, 0xa0, 0x95, 0x8d, 0x85, 0x89, 0xa8,
    0xbf, 0xaa, 0x96, 0x85, 0x84, 0x81, 0x91, 0xa7, 0x94, 0x9a,
    0xa7, 0xa5, 0x9e, 0x8f, 0x90, 0x97, 0x92, 0x99, 0x9d, 0x8f,
    0x6c, 0x8f, 0x92, 0x7c, 0x88, 0x76, 0x8e, 0x9a, 0xaf, 0xa8,
    0x9f, 0x9f, 0x96, 0x94, 0x7d, 0x90, 0x8b, 0x95, 0x9d, 0xa0,
    0x8d, 0x94, 0xa1, 0xa2, 0x92, 0x9c, 0x9c, 0x88, 0x8d, 0x8b,
    0x7e, 0x90, 0x88, 0x90, 0x99, 0x92, 0x93, 0xab, 0x9d, 0xa5,
    0x98, 0x8f, 0x8f, 0x8a, 0x76, 0x8e, 0x85, 0xa0, 0x8c, 0x95,
    0x86, 0x93, 0xa1, 0x9a, 0x96, 0x73, 0x7f, 0x80, 0x75, 0x86,
    0x8f, 0x8f, 0xa3, 0xa2, 0x96, 0xa2, 0xba, 0x9d, 0xaf, 0x9c,
    0x8d, 0x8a, 0x5d, 0x74, 0x76, 0x91, 0x8e, 0x9f, 0x89, 0x93,
    0x9c, 0x8c, 0x7e, 0x86, 0x90, 0x80, 0x8a, 0x8b, 0xa2, 0x88,
    0x88, 0x9f, 0x9d, 0x96, 0x9e, 0xa0, 0x9b, 0x8d, 0x8d, 0x84,
    0x84, 0x6b, 0x93, 0x9d, 0x9f, 0x86, 0x8d, 0x87, 0x8c, 0x87,
    0x86, 0x89, 0x8b, 0x81, 0x96, 0x93, 0xa1, 0x9a, 0x88, 0x7d,
    0x81, 0x99, 0x8b, 0xa0, 0x96, 0xab, 0xa5, 0x8d, 0x96, 0x7c,
    0x8e, 0xac, 0x90, 0x99, 0x97, 0x98, 0x96, 0x90, 0x89, 0x88,
    0x7d, 0x79, 0x7c, 0x84, 0x7a, 0x76, 0x92, 0x76, 0x83, 0x75,
    0x89, 0x88, 0x98, 0xa1, 0xa8, 0xa5, 0x88, 0x79, 0x8f, 0x9a,
    0x90, 0x91, 0x8e, 0x9e, 0xa0, 0xa1, 0x8d, 0x8a, 0x95, 0x7e,
    0x87, 0x8a, 0x93, 0x88, 0x92, 0x7a, 0x89, 0x7a, 0x8a, 0x89,
    0x95, 0x95, 0x90, 0x8d, 0x8f, 0x94, 0xa5, 0x91, 0x89, 0x8b,
    0x94, 0x8a, 0x97, 0x9e, 0xa1, 0xa0, 0x8c, 0x9d, 0x83, 0x7e,
    0x6f, 0x88, 0x6e, 0x70, 0x75, 0x7e, 0x81, 0x7c, 0x7b, 0x77,
    0x62, 0x7d, 0x83, 0x8f, 0xa2, 0x9b, 0x8b, 0xa2, 0x86, 0x90,
    0x90, 0x95, 0x98, 0x86, 0x90, 0x83, 0x69, 0x7d, 0x7f, 0x69,
    0x72, 0x70, 0x73, 0x6e, 0x77, 0x76, 0x77, 0x66, 0x65, 0x7c,
    0x7a, 0x8a, 0x9b, 0x9f, 0x9a, 0x94, 0x8c, 0x8f, 0x97, 0x9f,
    0xa0, 0x8d, 0x8a, 0x9c, 0x96, 0x93, 0x8b, 0x92, 0x8a, 0x91,
    0x84, 0x89, 0x9f, 0xa0, 0x82, 0x83, 0x8f, 0x92, 0xa2, 0x8c,
    0x87, 0x93, 0x96, 0x97, 0x9f, 0x93, 0x8a, 0x9f, 0x97, 0x98,
    0x99, 0x97, 0x87, 0x86, 0x9e, 0x9b, 0x9c, 0x86, 0x8f, 0x8e,
    0x9b, 0x8d, 0x9c, 0x87, 0x98, 0x8c, 0x98, 0x97, 0x88, 0xa1,
    0x93, 0x9d, 0x98, 0x8b, 0x9e, 0x94, 0x8d, 0x9a, 0x95, 0x84,
    0x89, 0x8d, 0x8e, 0x90, 0x94, 0x9b, 0x98, 0x8e, 0x9f, 0x9c,
    0x93, 0x95, 0x92, 0x8d, 0xa0, 0x8c, 0x99, 0x86, 0x85, 0x86,
    0x8e, 0x93, 0xa2, 0x9a, 0x85, 0x89, 0x8d, 0x8e, 0x8f, 0x7e,
    0x8e, 0x7d, 0x7a, 0x81, 0x9a, 0x93, 0x90, 0x91, 0x6e, 0x8c,
    0x7a, 0x87, 0x7f, 0x95, 0x95, 0xa0, 0x8d, 0x87, 0x94, 0x8d,
    0xa2, 0x8b, 0x8c, 0x92, 0x8d, 0x8d, 0x79, 0x70, 0x94, 0x93,
    0x8d, 0x7c, 0x92, 0x91, 0x99, 0x98, 0x8f, 0x90, 0xa0, 0x95,
    0x93, 0x8b, 0x81, 0x90, 0x8b, 0x85, 0x86, 0x93, 0x96, 0x96,
    0x90, 0x9d, 0x96, 0x84, 0x8a, 0x81, 0x8f, 0x97, 0x84, 0x8d,
    0xad, 0xa2, 0x8d, 0x95, 0xa0, 0xab, 0xa3, 0xa8, 0x98, 0x85,
    0x85, 0x7e, 0x9d, 0x92, 0x8e, 0x9d, 0x8f, 0xac, 0xa3, 0x99,
    0x85, 0x80, 0x8a, 0x95, 0x72, 0x76, 0x90, 0x9f, 0x9b, 0x97,
    0x93, 0x8b, 0x9d, 0x97, 0x9f, 0xa9, 0xa1, 0x7d, 0x7b, 0x90,
    0x8c, 0x8a, 0x99, 0x8c, 0x96, 0x93, 0x93, 0x98, 0x95, 0x96,
    0x90, 0x7b, 0x89, 0x85, 0x90, 0x9c, 0x9a, 0x90, 0x9d, 0x94,
    0xa2, 0x91, 0x99, 0x9d, 0xa2, 0x92, 0x8c, 0x93, 0x8b, 0x94,
    0x8c, 0x8c, 0x8e, 0x93, 0x9a, 0x9b, 0x83, 0x9d, 0x94, 0x8c,
    0x98, 0x8a, 0x88, 0x96, 0x9f, 0x98, 0x99, 0xa4, 0xa6, 0xa7,
    0x8d, 0x89, 0xa0, 0x8e, 0x79, 0x6d, 0x89, 0x8b, 0x9f, 0x97,
    0x92, 0x87, 0x9b, 0x8e, 0x89, 0x94, 0x8d, 0x9b, 0x82, 0x84,
    0x94, 0x99, 0x9a, 0xa1, 0x9c, 0x93, 0x94, 0xa6, 0x90, 0x9b,
    0x91, 0x9d, 0x87, 0x6f, 0x8a, 0x8b, 0x96, 0x98, 0x8d, 0x8d,
    0x98, 0x97, 0x97, 0x8f, 0x98, 0x89, 0x95, 0x88, 0x8a, 0x94,
    0x9d, 0xac, 0x97, 0x7e, 0x91, 0x91, 0x95, 0x96, 0xa3, 0xa0,
    0x97, 0x71, 0x8d, 0x87, 0xa0, 0xa1, 0x93, 0x8c, 0x9b, 0xa0,
    0x8d, 0xa4, 0x8d, 0x9d, 0x94, 0x88, 0x80, 0x9a, 0x95, 0xab,
    0x8b, 0x85, 0x77, 0x7d, 0x96, 0xac, 0xa2, 0xa9, 0xa5, 0x7f,
    0x87, 0x8b, 0x8d, 0x90, 0xa6, 0x9a, 0xa2, 0x8d, 0x8d, 0x98,
    0x92, 0x9d, 0x85, 0x98, 0x86, 0x8c, 0xa4, 0x9b, 0x93, 0x84,
    0x75, 0x72, 0xa2, 0xaa, 0xaa, 0x99, 0xac, 0x8c, 0x96, 0xaa,
    0x9a, 0x91, 0x95, 0xa5, 0x8d, 0x93, 0x9f, 0x8e, 0x8c, 0x98,
    0x8c, 0x8d, 0x7e, 0x80, 0xaa, 0x97, 0x87, 0x77, 0x56, 0x86,
    0x8d, 0xa7, 0xa4, 0x9d, 0xa5, 0x8e, 0x8b, 0x8d, 0x94, 0x92,
    0x8b, 0x8f, 0x9a, 0x90, 0x9b, 0x9f, 0x96, 0xaf, 0x85, 0x73,
    0x7c, 0x92, 0x95, 0x9a, 0x9d, 0x6f, 0x55, 0x7e, 0x98, 0x9b,
    0x9e, 0xa0, 0xa6, 0x9e, 0x89, 0x8e, 0x85, 0x91, 0x98, 0x77,
    0x9c, 0x9f, 0x8c, 0x96, 0xa3, 0x9a, 0x8a, 0x80, 0x8d, 0x80,
    0x92, 0xa3, 0x8a, 0x54, 0x63, 0x8e, 0xa4, 0xa3, 0x8b, 0x9a,
    0xa1, 0x97, 0x8b, 0x89, 0x97, 0x9d, 0x98, 0x90, 0xb1, 0xa3,
    0x93, 0x9e, 0xaa, 0x8d, 0x7c, 0x7f, 0x8d, 0xa2, 0xa2, 0x97,
    0x89, 0x50, 0x77, 0x85, 0x9d, 0x9f, 0x9d, 0x93, 0xaf, 0x94,
    0x8d, 0x99, 0x89, 0x90, 0x8a, 0x7e, 0x9a, 0x9b, 0x7a, 0xa6,
    0xa3, 0x92, 0x74, 0x88, 0x88, 0x96, 0xa3, 0x9c, 0x77, 0x5d,
    0x7c, 0x9a, 0x9b, 0x96, 0x9d, 0x9e, 0x98, 0x92, 0x79, 0x92,
    0x89, 0xa0, 0x89, 0x8c, 0x9e, 0x9d, 0x98, 0xa0, 0xa4, 0x91,
    0x82, 0x8f, 0x92, 0x9e, 0x96, 0x8c, 0x6d, 0x89, 0x92, 0x93,
    0xa1, 0x9f, 0x99, 0x98, 0xa4, 0x84, 0x87, 0x8a, 0xa3, 0x92,
    0x9b, 0xa4, 0xa3, 0x81, 0x95, 0x95, 0x9b, 0xab, 0x89, 0x7b,
    0x90, 0xa6, 0x92, 0x89, 0x79, 0x97, 0x94, 0x96, 0x9f, 0xa2,
    0xa5, 0xa2, 0x9e, 0x95, 0x95, 0x94, 0x8e, 0xa6, 0x98, 0x96,
    0xa1, 0x9d, 0xab, 0x8f, 0x94, 0xa7, 0xa2, 0x97, 0x95, 0x9d,
    0x94, 0x78, 0x81, 0x8d, 0x98, 0x95, 0x90, 0x90, 0x9c, 0x97,
    0x7d, 0x99, 0x94, 0x90, 0x8c, 0x92, 0x8b, 0x97, 0xa2, 0x8b,
    0x8c, 0x9e, 0x9b, 0xa5, 0xa2, 0xa3, 0x96, 0x9d, 0x94, 0x8d,
    0x7f, 0x84, 0x96, 0x8f, 0x84, 0x88, 0xa1, 0x83, 0x8d, 0x98,
    0xa1, 0x98, 0x91, 0x8a, 0x9e, 0x94, 0xa0, 0x85, 0x93, 0x8e,
    0x9d, 0xa6, 0xa8, 0x9a, 0x8f, 0x80, 0x87, 0x9a, 0x7f, 0x8d,
    0x7f, 0x83, 0x8c, 0x92, 0x7f, 0x85, 0x99, 0x8a, 0x9a, 0x9f,
    0x98, 0xa4, 0x94, 0x98, 0x91, 0xa9, 0x95, 0x9e, 0x90, 0x8f,
    0x90, 0x84, 0x7b, 0x84, 0x94, 0x95, 0x94, 0x8e, 0x85, 0x85,
    0x82, 0x92, 0x85, 0x84, 0x9e, 0x94, 0xa2, 0x8d, 0x94, 0x96,
    0x91, 0x91, 0x8a, 0xac, 0xa2, 0xa8, 0x9e, 0xa0, 0xa2, 0xa6,
    0x98, 0x9b, 0xa4, 0xaa, 0x9e, 0x9f, 0x8d, 0x97, 0x88, 0x7e,
    0x74, 0x92, 0x8e, 0x9a, 0xa0, 0x87, 0x9e, 0x8d, 0x89, 0x9c,
    0xa5, 0x9d, 0xb0, 0x98, 0x9b, 0xa9, 0xa8, 0x97, 0x9d, 0x99,
    0xa2, 0xa3, 0x94, 0x86, 0x8d, 0x95, 0x80, 0x76, 0x8c, 0x84,
    0x9e, 0x97, 0xa5, 0x8a, 0x98, 0xa1, 0x8a, 0x91, 0xa6, 0x9a,
    0x9c, 0x98, 0x9e, 0x95, 0x7a, 0x84, 0x80, 0x9b, 0x8f, 0x84,
    0x80, 0x6c, 0x90, 0x7e, 0x77, 0x8f, 0x8f, 0x93, 0x92, 0x97,
    0x8e, 0x86, 0x9e, 0x95, 0x97, 0x99, 0x94, 0x92, 0x9c, 0x8e,
    0xa0, 0x92, 0x97, 0x8b, 0x78, 0x86, 0x8c, 0x71, 0x79, 0x90,
    0x95, 0x97, 0x91, 0x81, 0x91, 0x98, 0x99, 0xa3, 0x95, 0x9f,
    0x8d, 0x8a, 0x9d, 0x86, 0x96, 0x86, 0xa1, 0x9b, 0x9d, 0x9c,
    0x98, 0x9e, 0x84, 0x9d, 0x92, 0x86, 0x88, 0x94, 0xa6, 0x99,
    0x91, 0x8b, 0x84, 0x97, 0x87, 0x8e, 0x94, 0x91, 0x8b, 0x8c,
    0x8b, 0x99, 0xa2, 0x9a, 0x9c, 0x89, 0x94, 0x94, 0x90, 0x97,
    0xa6, 0x91, 0xa2, 0x9c, 0x9c, 0x9c, 0x8a, 0xa1, 0x92, 0x86,
    0x9c, 0x9b, 0x9d, 0x8b, 0x9e, 0x95, 0x93, 0x92, 0x8d, 0x93,
    0x92, 0x9c, 0x8f, 0x8f, 0xa2, 0x9f, 0xaf, 0xbd, 0xc7, 0xbc,
    0xbd, 0xb9, 0xb2, 0xce, 0xb3, 0xa0, 0x9d, 0x8d, 0xa8, 0x97,
    0x9e, 0x9d, 0x87, 0x8e, 0x9f, 0x93, 0x8d, 0x9b, 0x9e, 0xa4,
    0xb4, 0xb6, 0xc8, 0xc6, 0xe9, 0xd7, 0xd6, 0xbd, 0x9f, 0xb2,
    0xaf, 0xb4, 0xb3, 0xd8, 0xd3, 0xd0, 0xc2, 0xaa, 0x9a, 0x97,
    0x95, 0x9f, 0x9e, 0x94, 0x95, 0x86, 0x83, 0xa8, 0xa7, 0xbd,
    0xbd, 0xc2, 0xb1, 0xbf, 0xaf, 0xac, 0x9d, 0x9a, 0x7e, 0x76,
    0x7a, 0x89, 0x81, 0x8e, 0xa6, 0xa2, 0x98, 0x9e, 0x9d, 0x96,
    0x8a, 0x9b, 0xa4, 0x9d, 0x9c, 0x93, 0xa6, 0xa8, 0x9f, 0x90,
    0x8e, 0x9a, 0xa3, 0xa6, 0x99, 0x8f, 0x95, 0x93, 0x96, 0x94,
    0x90, 0x89, 0x7c, 0x85, 0x8e, 0x96, 0x92, 0xa7, 0x90, 0xa0,
    0x9a, 0x98, 0xa3, 0x89, 0x95, 0x85, 0x8b, 0x80, 0x8a, 0x91,
    0x8f, 0xa2, 0xaa, 0x93, 0x94, 0x93, 0x9b, 0x89, 0x8c, 0x86,
    0x90, 0x93, 0x9f, 0x99, 0x8d, 0x8d, 0x90, 0x84, 0x97, 0x9b,
    0xab, 0x91, 0x96, 0x85, 0x83, 0x86, 0x7e, 0x97, 0x92, 0x95,
    0x9f, 0xa8, 0xa7, 0x94, 0x90, 0x97, 0x92, 0xa4, 0x95, 0x8c,
    0x85, 0x8b, 0x86, 0xa1, 0x9d, 0x97, 0x91, 0x95, 0x99, 0x96,
    0x88, 0x83, 0x7e, 0x90, 0x95, 0xa0, 0x8a, 0x99, 0x91, 0x91,
    0x8f, 0x7d, 0x7d, 0x8f, 0x8a, 0x9b, 0x98, 0x8d, 0xa4, 0x7b,
    0x75, 0x96, 0x9c, 0x96, 0x95, 0x87, 0xa3, 0x88, 0x9b, 0x8a,
    0x84, 0x8b, 0x97, 0x8e, 0x91, 0xa6, 0x8f, 0x99, 0x99, 0x98,
    0x8d, 0x9e, 0x83, 0xa0, 0x99, 0x8f, 0x8f, 0x6f, 0x65, 0x8f,
    0x8b, 0x8c, 0xa9, 0x90, 0xa4, 0x96, 0x8d, 0x7d, 0x80, 0x96,
    0x89, 0x88, 0x94, 0xa4, 0x7d, 0x7d, 0xa5, 0x9e, 0x98, 0xa1,
    0x93, 0x85, 0x80, 0x9d, 0x95, 0x65, 0x6a, 0x97, 0x9a, 0x8f,
    0xa4, 0x9c, 0x91, 0xa7, 0x82, 0x8a, 0x87, 0x8e, 0x8d, 0xa0,
    0x86, 0x84, 0x74, 0x83, 0xa4, 0xa4, 0xa1, 0x9b, 0x90, 0x8a,
    0x82, 0x93, 0x94, 0x5d, 0x5f, 0x97, 0x8d, 0x90, 0x86, 0xae,
    0x8c, 0x9c, 0x8a, 0x95, 0x84, 0x94, 0x8e, 0x95, 0x82, 0x81,
    0x74, 0x69, 0x96, 0x98, 0x93, 0x9f, 0x86, 0x90, 0x8c, 0x90,
    0xa9, 0x82, 0x67, 0x89, 0xa1, 0x94, 0x8b, 0xae, 0x96, 0x8a,
    0x88, 0x86, 0x93, 0x98, 0x79, 0x89, 0x8a, 0x80, 0x68, 0x73,
    0x82, 0x78, 0x90, 0x91, 0x8e, 0x99, 0xa0, 0x9a, 0xb5, 0x90,
    0x72, 0x96, 0x9c, 0x8c, 0xb0, 0xa1, 0xa0, 0x9a, 0x9e, 0x9d,
    0x8b, 0x9a, 0x8f, 0x8e, 0x79, 0x7f, 0x7e, 0x6d, 0x7b, 0x8d,
    0x87, 0x92, 0x93, 0x94, 0x97, 0xb4, 0xb9, 0x90, 0x7c, 0x98,
    0x96, 0x93, 0x8a, 0x9f, 0xae, 0x95, 0x9f, 0xa1, 0xa0, 0x9c,
    0x8c, 0x99, 0x7d, 0x83, 0x8e, 0x7a, 0x7a, 0x80, 0x92, 0x8f,
    0x98, 0xa0, 0xa3, 0xa5, 0x9a, 0xa0, 0xad, 0xa6, 0xa1, 0x89,
    0x84, 0xa4, 0xb2, 0xad, 0x9c, 0xaa, 0xb4, 0x9a, 0x91, 0x81,
    0x86, 0x93, 0x94, 0x86, 0x8d, 0x8d, 0x8b, 0x97, 0x92, 0x9e,
    0x8d, 0x93, 0xa7, 0xc6, 0xac, 0x9b, 0x96, 0x8d, 0x7e, 0x99,
    0xb3, 0xa3, 0xa3, 0x9a, 0xba, 0xa3, 0x9c, 0xb2, 0xa0, 0x96,
    0x96, 0x94, 0x8a, 0xa3, 0x93, 0xa9, 0x93, 0xa0, 0x89, 0x86,
    0x83, 0xd6, 0xad, 0x9e, 0x92, 0x9a, 0x92, 0x94, 0xb4, 0xa6,
    0xa2, 0xa4, 0x9c, 0xac, 0xae, 0xb0, 0xb2, 0x9d, 0x91, 0x8d,
    0x8e, 0x96, 0x96, 0x89, 0x8d, 0x91, 0x9c, 0x91, 0x86, 0xe5,
    0xbc, 0xa5, 0x8f, 0x84, 0x86, 0x9a, 0xaa, 0x92, 0x9c, 0xa8,
    0x9f, 0xa2, 0xa9, 0x9b, 0xb4, 0x9e, 0x8c, 0x91, 0x96, 0x9b,
    0x9b, 0x91, 0x85, 0x8f, 0x94, 0x92, 0x96, 0xc9, 0xd2, 0xa0,
    0x9e, 0x9c, 0x88, 0x9d, 0x9d, 0x8d, 0x97, 0xab, 0x93, 0xa5,
    0xab, 0xb7, 0xae, 0x9c, 0x98, 0x87, 0x9e, 0xa2, 0x95, 0x98,
    0x95, 0x99, 0xaa, 0x9b, 0xa1, 0xb0, 0xb9, 0xa3, 0xa0, 0x96,
    0xa6, 0xa7, 0xa3, 0xb5, 0x87, 0x9b, 0x86, 0x93, 0x9e, 0xae,
    0x9b, 0x9e, 0x8e, 0x93, 0x92, 0xa3, 0x9b, 0x9f, 0x9d, 0x9a,
    0x9a, 0x9c, 0xb9, 0xbe, 0xb7, 0x9b, 0x89, 0x97, 0xa7, 0xc0,
    0xb1, 0xa6, 0x9c, 0x8c, 0x8c, 0x9c, 0x9c, 0x9f, 0x93, 0x9a,
    0xa0, 0xa8, 0x93, 0xa3, 0x9d, 0x9e, 0x8d, 0x91, 0xa4, 0xb5,
    0xc8, 0xb6, 0xb5, 0x97, 0x92, 0xa0, 0x8e, 0xa7, 0x90, 0x8a,
    0x99, 0xa1, 0x9e, 0x8f, 0xa0, 0xa7, 0x9f, 0x96, 0x99, 0x97,
    0xa7, 0x98, 0x9c, 0x92, 0x9b, 0xa1, 0xa9, 0xa0, 0xb4, 0xa5,
    0x9b, 0x88, 0x98, 0x8a, 0xa6, 0x98, 0x9c, 0x8f, 0x8c, 0x97,
    0x99, 0xa1, 0x9c, 0xa1, 0x96, 0x92, 0x8f, 0x8f, 0x8d, 0x94,
    0x9e, 0x98, 0x92, 0x9c, 0xab, 0xb2, 0xad, 0x9b, 0x8e, 0xa0,
    0x8f, 0x87, 0x84, 0x79, 0x77, 0x7e, 0x7c, 0x71, 0x86, 0x79,
    0x7a, 0x7e, 0x95, 0x7d, 0x71, 0x7d, 0x7b, 0x8a, 0x96, 0x92,
    0xa8, 0x90, 0x98, 0xb0, 0x98, 0xa4, 0xa1, 0x9b, 0x86, 0x87,
    0xa5, 0x99, 0x7a, 0x64, 0x70, 0x6f, 0x59, 0x59, 0x5d, 0x79,
    0x7a, 0x78, 0x71, 0x7e, 0x96, 0x90, 0xa1, 0xb2, 0xad, 0x99,
    0x8d, 0x8b, 0x95, 0xa5, 0x97, 0x8d, 0x87, 0x8c, 0x88, 0x8c,
    0x9a, 0x87, 0x7c, 0x86, 0x78, 0xa0, 0x9f, 0xa8, 0xac, 0xab,
    0x95, 0x8f, 0x85, 0x86, 0x9f, 0xab, 0xa7, 0xa6, 0xa2, 0x89,
    0x90, 0xa0, 0x8c, 0x9c, 0x94, 0x91, 0x99, 0x9c, 0x85, 0x94,
    0x8a, 0x91, 0x9f, 0x9d, 0x97, 0x8e, 0x98, 0x97, 0x90, 0x86,
    0x94, 0x86, 0x8f, 0x9d, 0x91, 0x90, 0x9b, 0x7f, 0x9f, 0x8e,
    0x8f, 0x94, 0x99, 0x96, 0x9a, 0x8f, 0x8f, 0x8e, 0x9d, 0x9b,
    0x9a, 0xa0, 0x87, 0x97, 0x98, 0x8c, 0x9f, 0x92, 0x9f, 0x92,
    0x98, 0x86, 0x93, 0x8f, 0x90, 0xa0, 0x8b, 0x8d, 0x91, 0x94,
    0x98, 0x88, 0x93, 0x89, 0x8b, 0x92, 0x97, 0xb1, 0xac, 0xa5,
    0xba, 0xc5, 0xc9, 0xc8, 0xb4, 0xa1, 0xab, 0xc2, 0xba, 0xbb,
    0xa5, 0x95, 0x93, 0x98, 0x97, 0x9f, 0x88, 0xa0, 0x8e, 0x91,
    0x8a, 0x99, 0x93, 0x95, 0xc2, 0xce, 0xd2, 0xc6, 0xd2, 0xe6,
    0xda, 0xcb, 0xc5, 0xcb, 0xd0, 0xda, 0xe8, 0xfc, 0xe1, 0xc7,
    0xb8, 0xa8, 0x95, 0x92, 0x8a, 0xa1, 0x8c, 0x8c, 0x86, 0x92,
    0x94, 0x94, 0xbc, 0xcb, 0xc1, 0xb3, 0xb0, 0xbd, 0xb4, 0xc5,
    0xbe, 0xb3, 0xcc, 0xcf, 0xd0, 0xcc, 0xae, 0xab, 0xb4, 0xa4,
    0x8e, 0x9b, 0xa0, 0x9a, 0x9c, 0x95, 0x9e, 0x8c, 0xa6, 0xa1,
    0xb6, 0xb8, 0xaf, 0x90, 0x9d, 0xa3, 0x8c, 0x8f, 0xa4, 0x94,
    0x9a, 0xad, 0xa0, 0xa9, 0xb0, 0x99, 0x8d, 0x89, 0x84, 0x8a,
    0x9e, 0x98, 0x94, 0x95, 0x9d, 0x94, 0x94, 0xa1, 0x97, 0xae,
    0x8c, 0x7e, 0x8d, 0x8e, 0x89, 0x81, 0x8f, 0x85, 0x82, 0x86,
    0x6a, 0x79, 0x83, 0x73, 0x95, 0x8b, 0xa1, 0x9e, 0x88, 0x8b,
    0x9e, 0x96, 0x96, 0xa2, 0x9c, 0x8f, 0xa4, 0x9b, 0x8f, 0x8d,
    0xa4, 0x9c, 0xad, 0xb1, 0xaa, 0xc1, 0xab, 0x9f, 0x7c, 0x6d,
    0x72, 0x51, 0x58, 0x58, 0x8d, 0x94, 0x99, 0x9a, 0x9f, 0x97,
    0xaa, 0x90, 0x91, 0x7f, 0x71, 0x87, 0x7c, 0x9c, 0x9c, 0x9b,
    0xb1, 0xab, 0xbb, 0xb5, 0x93, 0x89, 0x79, 0x72, 0x6b, 0x66,
    0x40, 0x53, 0x5f, 0x85, 0x86, 0x98, 0x8d, 0x8f, 0x8f, 0x8c,
    0x93, 0x82, 0x87, 0x80, 0x94, 0x9c, 0xa0, 0xb0, 0x97, 0xa0,
    0xa8, 0x8a, 0x74, 0x82, 0x6e, 0x87, 0x75, 0x67, 0x54, 0x49,
    0x67, 0x86, 0x9e, 0x94, 0x9a, 0x99, 0x97, 0xa8, 0x87, 0x88,
    0x98, 0xa3, 0x9c, 0xa0, 0x97, 0x99, 0xa5, 0x90, 0x85, 0x69,
    0x71, 0x84, 0x8f, 0x79, 0x97, 0x82, 0x80, 0x67, 0x7f, 0x8a,
    0x8c, 0xa3, 0xa0, 0x9e, 0x95, 0xac, 0x94, 0x95, 0xae, 0x9a,
    0xad, 0xac, 0x89, 0x97, 0x76, 0x86, 0x7a, 0x7a, 0x94, 0x91,
    0xa3, 0x8b, 0xa5, 0x8b, 0x97, 0x81, 0x80, 0x82, 0x94, 0x98,
    0x91, 0x92, 0xb9, 0xb7, 0xaa, 0xa1, 0xa3, 0x9d, 0x95, 0x86,
    0x8f, 0x78, 0x88, 0xa6, 0xaa, 0x98, 0xab, 0xb0, 0xad, 0xa2,
    0xb4, 0xad, 0x9a, 0xa7, 0x8a, 0x74, 0x7d, 0x99, 0x8c, 0x98,
    0xb8, 0xb3, 0xbe, 0x9a, 0xa4, 0x9d, 0x89, 0x86, 0x82, 0x7b,
    0x85, 0x96, 0x98, 0xb1, 0xa6, 0x9c, 0xad, 0x95, 0xa1, 0x95,
    0xa1, 0xb8, 0xa4, 0x6e, 0x8c, 0xa2, 0x96, 0x98, 0x93, 0xb5,
    0xb2, 0x94, 0xa2, 0x91, 0x8e, 0x8e, 0x91, 0x8b, 0x85, 0x9b,
    0xa2, 0xaa, 0xa5, 0x9e, 0x97, 0x8f, 0x8e, 0x94, 0x9f, 0xab,
    0x93, 0x8d, 0x87, 0x89, 0x8c, 0x92, 0x92, 0xa6, 0xaf, 0x92,
    0x8e, 0x85, 0x9d, 0x8f, 0x9d, 0x92, 0x88, 0x80, 0x89, 0x9f,
    0x95, 0x8b, 0x9b, 0x95, 0x9c, 0x99, 0xad, 0x94, 0x9d, 0x8f,
    0x7e, 0x9e, 0x8b, 0x95, 0x97, 0x99, 0x94, 0x95, 0x9b, 0x84,
    0x83, 0x9c, 0x9c, 0x99, 0x8d, 0x85, 0x9f, 0x8b, 0x93, 0x85,
    0xa1, 0x90, 0xac, 0xa5, 0xa7, 0x81, 0x99, 0xae, 0x88, 0x83,
    0xa0, 0x9a, 0x99, 0x9c, 0x8a, 0x8a, 0xa1, 0x9c, 0x90, 0x92,
    0x97, 0x96, 0x8a, 0x7f, 0xa4, 0x8e, 0x8a, 0x85, 0x91, 0x94,
    0x94, 0x8e, 0x96, 0x83, 0x9c, 0x9c, 0x85, 0x98, 0xa0, 0x94,
    0xa4, 0xa1, 0x87, 0x98, 0x81, 0x8e, 0x88, 0x8f, 0x8e, 0xa6,
    0x90, 0x9f, 0x9d, 0x89, 0x8f, 0x90, 0x8b, 0x81, 0x80, 0x99,
    0x96, 0x81, 0x80, 0x80, 0x88, 0x84, 0x8b, 0x93, 0x91, 0x91,
    0x7a, 0x89, 0x81, 0x95, 0x8c, 0x8a, 0x96, 0x9f, 0x92, 0x89,
    0x8b, 0x8f, 0x83, 0x8e, 0x8c, 0x91, 0x7e, 0x87, 0x99, 0x92,
    0x75, 0x8a, 0x8b, 0x9f, 0x8f, 0x96, 0x8a, 0x9c, 0x7f, 0x7a,
    0x87, 0x86, 0x8d, 0x93, 0x9f, 0x9f, 0x9a, 0x98, 0x97, 0x90,
    0xa1, 0x87, 0x96, 0x94, 0x77, 0x8a, 0x99, 0x89, 0x8a, 0x94,
    0x8a, 0x8c, 0x88, 0x9f, 0xa3, 0x95, 0x8f, 0x87, 0x82, 0x7d,
    0x87, 0x84, 0x82, 0x80, 0x98, 0x94, 0x91, 0x91, 0x9e, 0x9d,
    0x8e, 0x97, 0x82, 0x89, 0x81, 0x86, 0x94, 0x98, 0x7c, 0x98,
    0xa1, 0x92, 0x9c, 0x8e, 0x97, 0x8b, 0x8d, 0x88, 0x7f, 0x83,
    0x8c, 0x79, 0x9a, 0x85, 0x9a, 0xa7, 0xad, 0x8a, 0x97, 0x89,
    0x8a, 0x82, 0x83, 0x86, 0x9c, 0x9b, 0x8d, 0x85, 0x98, 0xa0,
    0x90, 0x8a, 0x96, 0x76, 0x68, 0x91, 0x8b, 0x84, 0x8e, 0x78,
    0x86, 0x92, 0x9b, 0x93, 0x8f, 0x8f, 0x93, 0x81, 0x9a, 0x7f,
    0x9b, 0x95, 0x96, 0x95, 0x87, 0x93, 0x9d, 0x8f, 0x8d, 0x87,
    0x9e, 0x90, 0x8a, 0x9f, 0x91, 0x87, 0x91, 0x97, 0x87, 0x7a,
    0x8a, 0x8a, 0x87, 0x85, 0x8d, 0x9b, 0x9f, 0x9b, 0xa0, 0xae,
    0xad, 0x8f, 0x85, 0x99, 0x9d, 0x9c, 0x93, 0x87, 0x94, 0xa3,
    0x99, 0xb3, 0xbc, 0xae, 0x9f, 0x99, 0x90, 0x8a, 0xa6, 0x97,
    0x90, 0xa4, 0xa3, 0x98, 0xa7, 0x9d, 0x9a, 0xad, 0xb1, 0x90,
    0x96, 0x8d, 0x8e, 0x99, 0xa4, 0x92, 0x96, 0xa2, 0xb4, 0xb7,
    0xc4, 0xbf, 0xad, 0xab, 0xa2, 0xb3, 0xa7, 0x9e, 0xa5, 0xa4,
    0xa2, 0xc1, 0xba, 0xc4, 0xc0, 0xad, 0xab, 0x85, 0x8a, 0x8c,
    0x9d, 0x97, 0x9e, 0x88, 0x8a, 0x90, 0xba, 0xcb, 0xc5, 0xd7,
    0xd0, 0xcd, 0xd4, 0xce, 0xdb, 0xb0, 0xbd, 0xc5, 0xbd, 0xb7,
    0xcb, 0xc2, 0xbd, 0x9a, 0x94, 0x89, 0x93, 0x89, 0x9f, 0x88,
    0x9c, 0x9f, 0x95, 0x97, 0x97, 0x97, 0x9c, 0x8f, 0x9e, 0xa6,
    0x9f, 0xaa, 0xbb, 0xb3, 0x9c, 0x93, 0x9e, 0xa0, 0xa2, 0xa4,
    0x8d, 0x94, 0x93, 0x8d, 0x8f, 0x9e, 0x94, 0x8f, 0x95, 0x92,
    0x9c, 0x91, 0x97, 0x9d, 0x9c, 0x9c, 0x86, 0x9d, 0x99, 0x8a,
    0x85, 0x8f, 0x98, 0x8c, 0x9f, 0x90, 0x9c, 0x9b, 0x9d, 0x89,
    0x9e, 0xa0, 0x91, 0x91, 0x8e, 0x95, 0x8b, 0x92, 0xa0, 0x8a,
    0x9e, 0x8b, 0x86, 0x93, 0x9f, 0xa5, 0x9f, 0x9f, 0x8a, 0x92,
    0x9f, 0x97, 0x95, 0x8b, 0x97, 0x86, 0x8e, 0x96, 0x9d, 0x8b,
    0x92, 0x9d, 0x9f, 0x92, 0x8b, 0xa2, 0xa3, 0x95, 0x94, 0x8c,
    0x93, 0x94, 0x80, 0x89, 0x87, 0x83, 0x85, 0x8a, 0x90, 0x83,
    0x84, 0x6a, 0x73, 0x7d, 0x81, 0x9d, 0xa3, 0xa0, 0x8e, 0x87,
    0x9e, 0xa0, 0x96, 0x9c, 0x93, 0x83, 0x90, 0x8b, 0x88, 0x7c,
    0x87, 0x80, 0x7b, 0x83, 0x9c, 0x93, 0x9a, 0x98, 0x93, 0x9b,
    0x94, 0x96, 0x8e, 0x83, 0x91, 0x8a, 0x9c, 0x97, 0x98, 0x9d,
    0x8a, 0x95, 0x7d, 0x8d, 0x7e, 0x92, 0x8a, 0x7c, 0x84, 0x7a,
    0x88, 0xa9, 0xa5, 0x9a, 0xa7, 0xb1, 0xab, 0xaf, 0xa4, 0x98,
    0x8a, 0x9e, 0x88, 0x7f, 0x90, 0x90, 0x9a, 0x89, 0x9f, 0x8e,
    0x7a, 0x82, 0x84, 0x87, 0x9f, 0x9e, 0x8a, 0x8d, 0x80, 0xa4,
    0xa9, 0x8e, 0x87, 0x9a, 0xaa, 0xa9, 0x9b, 0x98, 0xa1, 0x9a,
    0xa4, 0x98, 0x8b, 0xa0, 0x87, 0x89, 0x9e, 0x90, 0x98, 0x90,
    0x85, 0xa8, 0x96, 0x94, 0x94, 0x88, 0xb9, 0x9f, 0x91, 0xa2,
    0x8c, 0xa6, 0x8e, 0x94, 0x8f, 0x9d, 0x8e, 0x86, 0x8c, 0x92,
    0xa3, 0x9d, 0x8a, 0xa2, 0xa7, 0x9f, 0x91, 0x95, 0xa7, 0xa1,
    0xa3, 0x93, 0xa5, 0x98, 0x9a, 0x9d, 0x8a, 0x8c, 0x92, 0x97,
    0x9c, 0x89, 0x8e, 0x95, 0x90, 0x89, 0x9f, 0xa0, 0xa5, 0x9b,
    0x95, 0xa3, 0xc0, 0xa7, 0x91, 0x98, 0x90, 0x90, 0x9d, 0x9c,
    0x96, 0x9f, 0x9c, 0x9d, 0xaa, 0x92, 0x9f, 0x88, 0x93, 0x9b,
    0x92, 0x8f, 0x94, 0xaf, 0x99, 0xa1, 0xa6, 0x8f, 0x97, 0xb0,
    0xd0, 0xb1, 0x97, 0xa6, 0x90, 0xa2, 0x97, 0x93, 0xa2, 0x9a,
    0xa6, 0x9d, 0xa2, 0x98, 0x83, 0x94, 0x9d, 0x90, 0x9e, 0x9d,
    0x98, 0xa0, 0xb5, 0xb1, 0x9d, 0xa4, 0x8d, 0xab, 0xb0, 0xa3,
    0xbd, 0xa3, 0x8e, 0x86, 0x8a, 0xa3, 0x9a, 0xb1, 0xb6, 0xb2,
    0x7a, 0x7f, 0x88, 0x9d, 0xa9, 0x9f, 0xa2, 0x9f, 0xa3, 0x99,
    0xad, 0xab, 0xb0, 0x91, 0x9a, 0xbc, 0xc8, 0xb3, 0x9f, 0x92,
    0x98, 0x88, 0x93, 0x98, 0x9a, 0x9b, 0xa4, 0x7e, 0x61, 0x67,
    0x88, 0x8b, 0xa3, 0x89, 0x96, 0x81, 0x85, 0x8f, 0xaa, 0xc3,
    0xaf, 0x92, 0x93, 0xa8, 0xb6, 0xb3, 0x9b, 0x90, 0x9f, 0x90,
    0x9b, 0xa8, 0x96, 0xa0, 0x87, 0x5b, 0x58, 0x7c, 0x88, 0x8b,
    0x8c, 0x76, 0x8e, 0x7c, 0x7d, 0x88, 0x94, 0x96, 0xa2, 0x9b,
    0x93, 0xaa, 0xb1, 0xbb, 0x97, 0xa2, 0xa6, 0xab, 0x98, 0xa8,
    0x92, 0x8e, 0x5b, 0x62, 0x78, 0x76, 0x82, 0x7b, 0x7b, 0x72,
    0x79, 0x78, 0x8a, 0x91, 0xa0, 0x96, 0x91, 0xa0, 0x99, 0x88,
    0xa8, 0xa1, 0x97, 0x9f, 0x99, 0xa2, 0x9e, 0x86, 0x89, 0x7f,
    0x58, 0x61, 0x87, 0x83, 0x85, 0x77, 0x7e, 0x73, 0x7e, 0x89,
    0x87, 0x76, 0x8a, 0x98, 0xa2, 0x98, 0xa4, 0x88, 0x96, 0x94,
    0x93, 0xa1, 0x92, 0xa5, 0x8b, 0x8f, 0x86, 0x6d, 0x56, 0x7d,
    0x8a, 0x8e, 0x95, 0x8a, 0x7a, 0x6d, 0x7a, 0x9a, 0x83, 0x91,
    0x93, 0x8c, 0x9c, 0x9f, 0x9f, 0x8a, 0x9a, 0x90, 0x96, 0x83,
    0x90, 0x8a, 0x84, 0x86, 0x79, 0x68, 0x6d, 0x6f, 0x92, 0x93,
